00000000
00000000
00000000
00000000
00000000
00000000
00000000
00000000
00000000
00000000
00000000
00000000
00000000
00000000
00000000
00000000
00000000
00000000
00000000
00000000
FFFFF4D7
FFFFF4CD
FFFFF9F8
FFFFF84F
FFFFFC50
FFFFF395
FFFFFD8B
FFFFEE48
FFFFF12E
FFFFED6F
FFFFEE0D
FFFFF6BB
FFFFEDF0
FFFFED5E
FFFFFDC6
FFFFF036
FFFFEDF3
FFFFF477
FFFFFBBF
FFFFF30E
FFFFF52B
FFFFF447
FFFFF6B5
FFFFF5B1
FFFFF738
FFFFF84A
FFFFF22A
FFFFF36E
FFFFFAA6
FFFFEECE
FFFFEDCD
FFFFF781
FFFFEFEF
FFFFF71E
FFFFF932
0000010C
FFFFF3B4
FFFFF6AB
00000517
000006FC
FFFFFE31
FFFFF4DA
FFFFFF7C
FFFFF4B9
FFFFF2B2
FFFFFD11
FFFFF90D
FFFFFC6C
FFFFF4F2
FFFFFF13
FFFFF0F1
FFFFF25E
FFFFFD67
FFFFFDC2
FFFFF65A
FFFFEC43
FFFFF743
FFFFFA8E
FFFFF964
FFFFF127
FFFFF0F7
FFFFF5EE
FFFFF644
FFFFFE8F
0000071C
0000045B
000013FA
00001956
00002AAC
0000118D
00001868
00000C5B
00000B3A
000014E0
000012A9
0000184A
000011C9
000001D3
FFFFFA86
FFFFF74F
FFFFFBF2
FFFFEE65
FFFFF5A5
FFFFF1EE
FFFFF38E
FFFFFD4A
FFFFF51B
FFFFF12B
FFFFEFCA
FFFFF572
FFFFF315
00000118
00001740
00001ACB
00002C1B
00002986
000011A5
00001863
000001AF
FFFFFB19
FFFFFB6B
FFFFFE53
000006CC
000007F6
00000239
FFFFFEA9
000005A0
FFFFFE5A
FFFFFD5F
FFFFEA42
FFFFF4C6
FFFFF420
FFFFEED4
FFFFF366
FFFFF4A9
FFFFFB87
FFFFF8A2
FFFFE713
FFFFE723
FFFFE7B0
FFFFF094
FFFFFAF5
FFFFF791
FFFFF6BA
00000316
FFFFF016
FFFFFD6F
FFFFE94E
FFFFE4CA
FFFFE110
FFFFD19D
FFFFC79B
FFFFDB51
FFFFD8B4
FFFFE609
FFFFE4A5
FFFFE645
FFFFF2A5
FFFFF90D
FFFFEFB6
FFFFF227
FFFFEF00
FFFFEC78
FFFFE94F
FFFFE41D
FFFFCAC9
FFFFD569
FFFFD6C7
FFFFF20C
FFFFE998
FFFFF8AF
000007E0
00002581
000016C0
00002392
00000E9B
0000171A
0000372F
000017D1
000003CA
FFFFF63E
FFFFE22D
FFFFCFED
FFFFDCA7
FFFFCE34
FFFFDFCD
FFFFF4D0
FFFFFE68
FFFFFA37
FFFFFB81
FFFFF216
FFFFE885
FFFFDA31
FFFFD246
FFFFC46B
FFFFE83A
FFFFED7F
FFFFE95C
FFFFE4FB
00000341
000021A9
000017ED
00001F01
000032A3
00001D7C
0000291A
FFFFFAFA
00000854
FFFFF240
FFFFFCCE
FFFFF9DB
FFFFFD30
FFFFDD22
FFFFE8D9
FFFFF607
FFFFFCC3
FFFFFAD6
FFFFF501
FFFFF852
FFFFE964
FFFFD5B2
FFFFD559
FFFFDD8E
FFFFF658
00000866
FFFFFBDC
00000C33
00001520
FFFFFBE4
0000276E
00002BDC
0000433C
00002398
FFFFF8C4
0000054F
FFFFEAD4
FFFFDCF9
00000C3E
00001085
000011F6
FFFFFA82
FFFFE348
FFFFE4AF
FFFFEE42
FFFFED87
FFFFF1B1
FFFFF0FF
FFFFE8CF
FFFFD107
FFFFE1F9
FFFFE727
FFFFFD0F
00000559
00002604
00002A4E
00001619
000013D1
00001D41
00001D9B
000020B0
00001CA4
FFFFED03
FFFFE827
000000C2
FFFFFC85
00000725
00000AA0
00003564
0000024F
FFFFE726
FFFFF019
FFFFF230
FFFFF5A4
FFFFEAD5
FFFFF4EF
FFFFD2C7
FFFFCBB5
FFFFE94E
FFFFF521
00000F1E
00000F3E
00002183
00003934
00001B5A
00001CBF
0000025D
FFFFCF32
FFFF9E13
FFFFD7EA
FFFFE50A
0000022E
0000130F
0000096C
000014BF
00001E14
000032AB
FFFFF931
FFFFCD67
FFFFE0F3
FFFFF4FB
FFFFFCF4
FFFFF9E7
FFFFE616
FFFFD3FF
FFFFDEDD
000001F8
00001B37
00001DF2
000029D0
00002752
00002EA8
00003529
00001EB3
FFFFD0BF
FFFF86C1
FFFF6AB1
FFFFA71D
FFFFEC8A
00001826
00000A36
00001CEA
00001D92
00002CB5
00002949
FFFFF610
FFFFC02F
FFFFDF9F
FFFFEE2A
FFFFFBA1
FFFFF00F
FFFFEA63
FFFFDCC7
FFFFE089
0000019E
00001F02
00001D15
00003555
000025C3
0000237E
000014C3
FFFFF94B
FFFFDDEE
FFFFA0FF
FFFF6537
FFFFB07F
FFFFCBE6
FFFFE033
000038AD
0000391F
00004DC5
0000346C
000044E1
00000DBC
FFFFE30B
FFFFF0D3
FFFFF8F4
FFFFF7F1
FFFFECE9
FFFFE8C3
FFFFF149
FFFFE9E2
FFFFF8C2
00001B35
000001AF
0000005C
00000717
00000394
00001345
00001450
0000245F
FFFFD07C
FFFFBC9B
FFFFDD79
FFFFEFBB
FFFFEF78
000039FF
00005A03
0000704B
000056FD
000059A5
000033EA
FFFFED6E
FFFFE5C1
FFFFF960
FFFFF901
FFFFEFB3
FFFFF73B
FFFFF311
FFFFEB5F
FFFFF388
00000AAD
00000885
FFFFE67F
FFFFF534
0000069D
00002165
00002BD4
00003419
FFFFF60B
00001E28
FFFFF474
FFFFEB8E
00001869
0000309F
00001C5D
00003239
00005395
00006BF1
00003679
FFFFF5BF
FFFFEE38
FFFFF8BD
FFFFFA55
FFFFF23E
FFFFF1B0
FFFFF812
FFFFE773
000014BB
000030F3
0000287D
00000F34
FFFFF09D
000004D3
0000493C
00003828
00004BF3
000011DF
FFFFFA39
00000321
0000073A
FFFFF921
FFFFF23F
FFFFEFEB
FFFFFA9C
000013D8
00002CA3
0000266E
FFFFFE80
FFFFF9D6
FFFFF5F6
FFFFEDC9
FFFFF21D
FFFFEE0B
FFFFFF43
FFFFF2D2
0000247D
00002797
00005492
00004BA1
00002611
000016F3
00001F1D
00003F12
00003AC0
00000C82
FFFFF33D
FFFFFE26
FFFFF8CC
FFFFCB5B
FFFFC74C
FFFFC040
FFFFD35E
FFFFDFC5
000000C8
00001E40
000013B5
FFFFF1FB
FFFFFAD9
FFFFF4CC
FFFFF3C5
FFFFFC45
FFFFF0B9
FFFFEACF
0000204E
00003032
0000404E
00005CEB
00006556
0000526D
00006CE5
000065C0
000033FF
00000565
00001B44
000021AC
00000346
FFFFF016
FFFFC10A
FFFFD2A4
FFFFCB8D
FFFFCECB
FFFFF18A
00000228
000013AD
000002F7
FFFFF6C2
FFFFF3D0
FFFFF7C3
FFFFFEAE
FFFFEF52
FFFFEDB1
00000FB3
000015AA
00002823
00004929
00007F71
0000A283
0000BE2B
00007D17
00003862
00000171
0000041E
00002D6D
00001489
FFFFEDEB
FFFFD162
FFFFDED2
FFFFC983
FFFFD075
FFFFE987
00000071
000017C8
00000124
FFFFF7FE
FFFFFA67
FFFFEC5B
FFFFE768
FFFFD158
FFFFE091
000002E9
FFFFFFB4
00002B2D
00004211
00006C18
00009162
00008AD6
00007DB7
000013F9
FFFFE463
FFFFFC6C
000007DE
00000324
FFFFEEE4
FFFFE0CF
FFFFC9C4
FFFFD0B5
FFFFE87F
000006B4
00001743
00001507
FFFFFC09
FFFFEDE1
FFFFF059
FFFFED0B
FFFFF0BB
FFFFD467
FFFFE615
FFFFF67E
000010AD
00002A38
00003542
000043F6
000052E5
00005BCA
000046EC
FFFFF376
FFFFFA72
00000EAD
000007FA
000005E0
FFFFF8FE
FFFFF2D7
FFFFF15F
FFFFFBB8
0000183C
00002165
00000F19
00000521
FFFFFDBC
FFFFF114
FFFFFAD9
FFFFEF2D
FFFFEB5B
FFFFD35E
FFFFF3C1
00000E24
00001612
00002A66
00000D9A
000017D3
0000238C
FFFFF4D8
000015F2
FFFFFEB6
FFFFF346
0000297B
FFFFECCB
FFFFEBF7
000009F2
FFFFFD50
FFFFFD47
00001F36
00001A51
00001C15
0000124D
0000045D
FFFFFAA3
FFFFF157
FFFFED15
FFFFEC54
FFFFEF0E
FFFFDCE0
FFFFE204
0000092B
0000161C
0000242D
FFFFFD67
00001EE2
FFFFFB9C
00000B27
000019C8
00001B18
00001715
0000020B
FFFFF06F
00001525
00001F30
00001177
00000D8C
00001B06
000029ED
000027A2
00000987
FFFFF6D8
FFFFF2D7
FFFFF1BE
FFFFF107
FFFFF9C3
FFFFEEED
FFFFF48E
FFFFD8D9
FFFFE9B0
00000D68
00001811
00002DF9
000010A0
0000100A
00001DA2
00004A10
00004F2E
000008DB
000004F6
FFFFF943
000005C1
00001AAD
000022B7
000032DA
00003DAE
00002955
000014B6
FFFFF75B
FFFFF88F
FFFFF8F9
FFFFF8BE
FFFFF1DF
FFFFEF62
FFFFF105
FFFFE815
FFFFD27A
FFFFC462
FFFFCAEA
FFFFE993
00001964
000014D1
0000062C
000027CD
00003E20
0000540A
000050E9
00003498
00002A7C
00001D96
00003C34
0000518C
00005CBD
00004AB4
00002B0D
000017CB
FFFFFD6D
FFFFFAD4
FFFFFAE8
FFFFF7C1
FFFFECF6
FFFFFC92
FFFFFCAE
FFFFEC9D
FFFFD371
FFFFAC5C
FFFF9913
FFFF9AB8
FFFFC8CD
FFFFD42C
FFFFD3B0
FFFFFB51
0000129E
000016DE
00001D6C
0000202B
00003D8B
000024F8
00003C30
00003352
000024E5
00001152
0000144B
000004BF
00000270
FFFFFB6E
FFFFFB17
FFFFF222
FFFFF79B
FFFFF42F
FFFFFA79
FFFFF047
FFFFE41B
FFFFCECB
FFFFCEC1
FFFFB203
FFFFA2C0
FFFF9521
FFFFABC8
FFFFA915
FFFFA32F
FFFFB19A
FFFFBAE3
FFFFDD4E
FFFFDDCD
FFFFF26B
FFFFEF2E
FFFFF980
FFFFF2A8
FFFFFC6D
FFFFF231
FFFFF709
FFFFF6A8
FFFFF3F7
FFFFF8DA
FFFFF267
FFFFF49C
FFFFEE94
FFFFFBC7
FFFFFD94
FFFFF054
FFFFE846
FFFFEA87
FFFFD875
FFFFC915
FFFFBCCD
FFFFBC97
FFFFC63C
FFFFCCB1
FFFFCA53
FFFFC67F
FFFFC60B
FFFFCFBF
FFFFD249
FFFFD8BF
FFFFF426
FFFFEE03
FFFFF892
FFFFF53F
FFFFF710
FFFFFA63
FFFFFBA2
FFFFF5FE
FFFFEEA2
FFFFFAD5
FFFFFE89
FFFFF704
FFFFFB64
FFFFF5FA
FFFFFB68
FFFFEFD2
FFFFF82C
FFFFF9C3
FFFFEB35
FFFFEED2
FFFFF65B
FFFFF416
FFFFED31
FFFFE7C6
FFFFE976
FFFFE958
FFFFF6AB
FFFFE84C
FFFFEDBF
FFFFF486
FFFFFC28
FFFFF396
FFFFF24B
FFFFF720
FFFFFBB0
FFFFF2FF
FFFFEF8F
00000000
00000000
00000000
00000000
00000000
00000000
00000000
00000000
00000000
00000000
00000000
00000000
00000000
00000000
00000000
00000000
00000000
00000000
00000000
00000000
