00000000
00000000
00000000
00000000
00000000
00000000
00000000
00000000
00000000
00000000
00000000
00000000
00000000
00000000
00000000
00000000
00000000
00000000
00000000
00000000
FFFFFFCF
00000631
000006DE
00000E6A
0000054A
00000A58
00000DAF
00000C35
0000097C
000001BF
00000BB9
00000AF9
00000A25
FFFFFFF9
00000692
000001FB
FFFFFDFC
00000A9D
00000356
00000442
00000EDF
00000835
FFFFFF14
00000C28
00000552
00000F7B
00000E0B
FFFFFDB1
FFFFFF24
00000B01
000005AD
000007FC
00000848
00000FB6
00000ACD
00000709
00000226
0000027E
FFFFFECE
FFFFF691
FFFFED04
FFFFFD58
0000008B
FFFFF8D7
FFFFFE94
00000394
FFFFFFE6
000000DF
000004F2
FFFFFD4A
0000087C
000007F4
00000739
FFFFFE4D
0000014A
00000CF3
FFFFFE84
00000A83
000003F3
000000A5
00000DD4
0000076F
0000085D
FFFFF310
FFFFF893
FFFFE766
FFFFDAC4
FFFFD520
FFFFC6E6
FFFFD4C6
FFFFDB44
FFFFD9C9
FFFFE215
FFFFE631
FFFFE4DB
FFFFEF37
0000001F
FFFFFFCD
FFFFF561
FFFFF953
0000025E
000000CA
0000010D
FFFFFDA3
00000A98
FFFFFF97
00000496
00000DBA
FFFFFCEE
FFFFFE23
FFFFFF85
FFFFF191
FFFFE269
FFFFC640
FFFFBCFF
FFFFAAF4
FFFFA440
FFFF85FA
FFFF8A97
FFFF9496
FFFFA7C2
FFFFD174
FFFFDBA3
FFFFDCFC
FFFFE137
FFFFFB01
000000BB
FFFFFBD7
FFFFFEC8
FFFFFD82
00000038
00000ED9
00000514
00000EF7
00000E34
00000EDD
0000029C
FFFFFB44
FFFFF353
FFFFE4D6
FFFFDA1E
FFFFD49E
FFFFB6F3
FFFFBCEA
FFFFB5A9
FFFFBA41
FFFFACBD
FFFFAC83
FFFFC389
FFFFDF6A
FFFFDCB9
FFFFF0D1
00000D96
00000FFE
00001670
00001381
00000F77
00000E91
00000737
00000453
0000094A
000009FF
00000CB0
000005DE
00000BB8
0000067C
FFFFFF12
FFFFF528
FFFFF58F
FFFFE861
FFFFE3D9
0000120A
0000212F
000015EB
00000A37
FFFFFA5C
FFFFCE82
FFFFDA28
FFFFDDB6
FFFFDBBE
FFFFE0BF
FFFFECFD
000010CC
000011D7
00001031
FFFFFED7
000008D1
00000EEE
00000DDE
00000660
000000B7
00000884
00000CE7
000001C9
00000434
FFFFF5D5
FFFFE7D1
0000011F
00000DBC
00001990
00001968
00001F6D
00002FDD
00002AC2
00002DD9
000025B5
00000513
00000891
FFFFF3EE
FFFFFCA8
00000376
FFFFF838
FFFFE111
FFFFF45E
FFFFF69B
00000EBD
0000000F
0000027C
000002E9
00000C7B
FFFFFF40
FFFFFACD
FFFFF3C7
FFFFF377
FFFFFB83
0000157B
00001398
00001779
000031D1
00004062
00003292
000062E7
00006056
00003372
00002565
00001748
00001C29
00000721
00000D28
FFFFFDE6
FFFFDFC9
FFFFE3F8
FFFFFB68
000000BB
000009D1
00000B1A
000008A0
00000DB8
00000B6C
000000B0
000003DF
00001048
000032C3
00002F02
00001BCE
0000301E
000022BB
000038CA
000031D8
00001B3D
00000B8E
000016F7
00003ED5
00001522
000005BA
00001115
00001E2A
FFFFFA1E
FFFFD0E0
FFFFDF7A
FFFFF193
0000085B
FFFFFE41
00000747
000007CD
000007B1
000003F2
00000C1F
00000F6B
00001386
000015AE
000030E5
00002F6C
00003609
00004551
00001B40
FFFFFAE6
00000C91
00001126
00003A4A
00003768
00002CDA
000023EE
000029B6
000026F0
FFFFE516
FFFFB118
FFFFC750
FFFFEBE9
000003A2
FFFFFFAF
00000C7A
000012C5
FFFFFB12
000000DC
00000A11
0000185E
0000220D
00001EF8
000032A5
00002B71
000010EA
00001766
FFFFD481
FFFFB40A
FFFFE689
FFFFFDF7
0000116A
0000321E
000042DF
00002816
00004B3B
00003AA9
FFFFD3A8
FFFFA1A9
FFFFD471
FFFFF925
00000EAD
000003B7
00000778
00000D0F
000002F9
00001050
00002234
00001DC4
00002FD9
000039A9
000030F2
0000459F
00002A17
000026BB
FFFFC5AC
FFFFEA51
000042F4
00003298
000039B7
00003BC0
00002C37
000058A8
00005610
0000438F
FFFFCF21
FFFFAFE7
FFFFDE9E
FFFFFFB5
00000092
00000D4A
000008BA
00000F02
00000525
00001961
00003130
0000294B
00004238
00003CD1
000021DE
00001121
00001E56
FFFFFD2B
FFFFD364
00001245
0000490A
00003BDF
00002EB5
00004B3F
00004A1E
00004FD8
00005D05
0000534A
FFFFEC92
FFFFCC8E
FFFFF218
FFFFFF52
FFFFFDA2
0000058B
00000B11
0000009F
00000151
0000307D
00003DD6
00002AC0
00002A45
00001EAF
000009B1
0000021E
FFFFFE43
FFFFD591
FFFFE2C1
0000498F
00004D67
00004DBB
00004CE0
0000321E
00003DE8
000055FE
00004C66
00002768
FFFFCC84
FFFFBC9C
FFFFF037
0000067D
000008BB
00000F8F
000009E8
00000B5A
000010A2
00003BE1
000034FF
0000210C
0000204C
00000165
FFFFE349
FFFFEC23
FFFFE837
FFFFE661
00000BF9
00003C1F
00002FF8
00003DEC
00005695
000034CE
00005E61
000029D2
00000250
00000446
FFFFD013
FFFFB496
FFFFF6B4
00000110
00000039
00000E7E
00000018
FFFFFBF2
00000E41
00001541
0000133F
00002695
00000331
000002F5
FFFFEB52
FFFFF855
00000D43
0000068C
000009E7
FFFFF1F8
0000286C
00003818
00006DA2
00001C2E
000006B6
FFFFEF3E
FFFFE1C0
FFFFFB88
FFFFCB25
FFFFBE39
FFFFDE26
00000642
0000064E
00000437
000004AF
0000040C
FFFFF2DD
FFFFF63E
FFFFE988
000008BE
0000246F
00003A48
000019AC
FFFFFA45
FFFFF792
00003D83
00000D00
FFFFEE15
00003EEF
000049C4
00004D12
FFFFEABA
FFFFC1A1
FFFFDE14
FFFFD892
FFFFDA84
FFFFC317
FFFFC69C
FFFFE6FB
0000056B
00000B02
00000F09
00000D1A
00000122
FFFFDC7B
FFFFD61D
FFFFDD36
FFFFE0C1
00001330
00002E97
0000388E
00001DD4
00003288
0000607A
000042CA
00002184
000034EF
00001D1B
00000A76
FFFFEFF2
FFFFAE4B
FFFFCCA2
FFFFDD30
FFFFBDBB
FFFFC626
FFFFD264
FFFFEC6F
0000096E
00000AF5
0000000D
0000067F
FFFFF9F9
FFFFE744
FFFFCC73
FFFFD7EA
FFFFD73C
FFFFF559
0000024A
00002543
00001893
000030CF
00002304
00001770
00001491
FFFFF3C8
FFFFFBEF
FFFFCE1E
FFFFDBBC
FFFFCD04
FFFFD6E6
FFFFC400
FFFFA8AF
FFFFAB52
FFFFD779
FFFFF110
000005FE
000008AF
00000A23
00000E27
FFFFFE13
FFFFE5BE
FFFFC93A
FFFFE1C9
FFFFEA59
FFFFD905
FFFFCF92
FFFFC000
FFFFD1D5
FFFFC5A7
FFFFB1AD
FFFFB671
FFFFE623
FFFFCC80
FFFFC414
FFFFB15E
FFFFB0EE
FFFFC150
FFFFC08D
FFFFA8A6
FFFF962F
FFFFBA60
FFFFE98F
FFFFF458
00000987
000007B2
000009A7
00000CCF
FFFFF62A
FFFFE0C9
FFFFB684
FFFFC086
FFFFCF21
FFFFC765
FFFFC14B
FFFFAE48
FFFF8EF3
FFFF840F
FFFF8AAF
FFFF9F6F
FFFFBCCF
FFFFB784
FFFFC0D4
FFFFC633
FFFFA2BF
FFFFC57F
FFFFC77B
FFFFAD3A
FFFFAF21
FFFFD496
FFFFFEE6
00000114
00000A19
000002A4
00000B93
00000B30
00000464
FFFFDF93
FFFFB4F2
FFFFBC5D
FFFFBCEB
FFFFC92E
FFFFDC36
FFFFE716
FFFFC6DD
FFFFB2F7
FFFFC48B
FFFFB4FD
FFFFC378
FFFFB82F
FFFFD8EB
FFFFC554
FFFFCD81
FFFFE9CD
FFFFEE4D
FFFFE954
FFFFD02A
FFFFE2BC
FFFFFE88
000000DF
FFFFFE2E
0000076B
000006E0
00000136
00000358
FFFFE324
FFFFCD39
FFFFC70E
FFFFD014
FFFFE067
FFFFF9C6
FFFFE669
FFFFEE1F
FFFFEDB9
000008F2
FFFFEDD9
0000007D
FFFFE7F3
FFFFDFBE
FFFFEAFB
FFFFEDC8
FFFFEF4C
FFFFF216
FFFFF409
FFFFF71C
FFFFF198
000001A8
FFFFFAA0
00000291
0000076D
000007D5
00000488
FFFFF586
FFFFEB96
FFFFE57D
FFFFDA7E
FFFFD089
FFFFED21
FFFFE2A4
FFFFC9DC
FFFFE8A9
FFFFF3A0
FFFFF98E
0000043E
00001617
FFFFF10E
FFFFFBD4
00000CDB
0000078D
FFFFFFE8
00000727
000008EB
FFFFFA4F
FFFFF9DD
FFFFFF11
000004CE
000008AE
FFFFFF69
00000569
00000330
FFFFFA31
FFFFF602
FFFFF9A0
00000E27
000007C6
FFFFFC0D
FFFFF25C
FFFFDD6F
FFFFEF87
FFFFF56C
FFFFDCBA
FFFFD37F
FFFFC012
FFFFD757
FFFFEF8F
FFFFFBEB
FFFFFAEE
00001045
00001F68
000018F5
00000FA0
FFFFF8CC
FFFFFD2A
0000028C
00000254
000000CE
000000B4
00000D93
000003CA
000008DC
00000CB6
00001E58
0000150E
00001064
00000CC0
00001053
00000818
00001369
000010B4
00001E58
000026B4
00001894
00001D90
0000272B
00002F92
0000283F
000027F1
00001875
000007E2
FFFFFEF5
00000578
000008E1
00000352
000007B2
00000906
0000002F
000004B8
000006AF
0000060B
00000C70
00001625
0000197D
000016C8
000020D0
000028F3
00001FD0
000020E2
000029B0
00004341
00002F23
0000215A
00001DBE
0000198D
00000CD5
00000607
00000D2E
000004BF
00000127
000007D9
FFFFFF26
FFFFFFA9
00000C93
FFFFFFBE
00000A67
00000B2B
00000EA6
00000179
00000998
00000CC2
00000074
000002FD
00000B60
00000CCB
00000378
00000609
000006AA
00001536
00001056
00000D4C
00000E9A
00000B17
00000A61
00000620
00000B89
00000FF3
00000911
0000088E
000001E2
0000008A
FFFFFE0B
00000000
00000000
00000000
00000000
00000000
00000000
00000000
00000000
00000000
00000000
00000000
00000000
00000000
00000000
00000000
00000000
00000000
00000000
00000000
00000000
