00000000
00000000
00000000
00000000
00000000
00000000
00000000
00000000
00000000
00000000
00000000
00000000
00000000
00000000
00000000
00000000
00000000
00000000
00000000
00000000
00000862
0000088C
0000072D
FFFFFF25
000005CB
0000093A
FFFFFFD6
00000632
000003F1
000005CE
00000369
FFFFF9B1
00000220
FFFFF95A
0000062E
FFFFFA48
000004D5
000006F5
0000039C
00000519
00000492
FFFFFEB6
FFFFFB1A
FFFFFE32
FFFFFEB9
FFFFF889
FFFFFD3E
FFFFF990
FFFFFD40
00000752
000005B6
FFFFF9FF
FFFFF880
FFFFF917
000007CE
00000A52
0000061F
00000180
00000230
FFFFFFE9
FFFFF8E5
FFFFFDF2
FFFFFAFE
0000002E
000004A8
000006E2
00000600
00000927
000004DB
000001B6
000005EA
00000682
000005FE
000006E1
FFFFFD5C
000009F6
000000F5
FFFFFA61
FFFFF9DB
00000211
FFFFFFDE
00000364
0000098D
00000883
FFFFFBCC
00000432
FFFFF92E
00000452
00000333
00000463
FFFFFB97
00000088
000003E9
FFFFFDC9
FFFFFE53
000009E0
FFFFF8A8
FFFFF849
FFFFFA17
000007EB
000004AF
0000089C
FFFFF9F3
000007E9
0000035B
000003EE
FFFFFDCF
00000998
000009DC
00000996
0000084B
00000267
00000846
00000071
FFFFFF02
FFFFFBC8
0000036C
FFFFF952
000008A1
0000019C
00000477
00000394
FFFFFE3D
FFFFFA24
FFFFFE24
FFFFFDE0
000004A9
FFFFFF96
0000078D
0000036B
00000406
FFFFF97F
0000069E
FFFFF9A7
0000095C
00000495
FFFFFD05
FFFFFCF5
00000216
000006A2
000007E5
00000027
0000066D
00000403
0000056A
000007F4
00000204
0000000D
0000053B
00000692
00000558
FFFFFCBD
FFFFF88C
000007EA
FFFFFC48
FFFFFB24
FFFFFB4E
FFFFFCB6
FFFFFA9B
0000073A
000009C4
FFFFFDB1
FFFFF944
FFFFF9C1
FFFFFBAC
00000974
FFFFFC67
0000072D
00000049
FFFFF5F0
FFFFFA46
FFFFF5E2
FFFFF45F
00000011
FFFFF7F3
FFFFF5E5
00000532
FFFFFEA7
00000658
FFFFFD49
000006FC
FFFFFFA9
00000294
FFFFFDCD
FFFFFA9B
FFFFFA14
FFFFFF19
00000A46
00000368
FFFFFD36
00000595
FFFFFDD8
000004BC
FFFFF864
FFFFFCA7
0000049B
00000207
00000472
000000C1
00000486
FFFFF9C9
000002DF
FFFFFD4F
FFFFFBBF
0000024E
000001A6
FFFFFA16
FFFFFAAC
00000538
000002E2
FFFFFF9D
FFFFF84E
00000906
00000871
FFFFFC94
FFFFF933
000000C9
FFFFFED5
0000072A
000003F5
FFFFFDC3
000006E2
00000146
FFFFFBFF
FFFFF6C5
00000343
000000EE
FFFFFCDB
FFFFFA95
FFFFFA5E
000007C7
0000072A
FFFFFAB3
FFFFFA84
00000551
FFFFF9A6
000001A5
0000038A
FFFFFC25
000006DB
FFFFFA6B
FFFFFBAB
000002C6
FFFFFF1B
000005A4
0000042F
0000053C
00000936
FFFFF899
000006DA
FFFFFB74
000002BF
000003F4
FFFFFACD
FFFFFD2D
000001CD
00000936
000008F3
000002C7
000004C5
FFFFF956
0000020C
FFFFF7F9
0000003C
0000063E
FFFFFDFB
FFFFF9E1
0000083B
0000051E
FFFFFF0C
0000084F
FFFFFEEF
FFFFFC47
00000A2D
FFFFFA25
FFFFFB89
00000870
FFFFFCFC
FFFFFA44
FFFFF981
FFFFFD88
FFFFF9E0
000003BC
FFFFFA7B
00000536
000003BD
00000475
0000004B
0000080D
FFFFF86B
FFFFF428
000000BE
FFFFFCD5
FFFFFFC5
FFFFFE2E
FFFFF85F
0000084B
FFFFF9BE
00000259
00000985
0000047B
FFFFFBE2
00000640
FFFFFE2A
00000410
FFFFFF89
000000F3
000006B5
000000DD
0000084F
FFFFFA67
000008B3
000002D2
FFFFFBE3
FFFFFCC2
0000014A
0000057C
FFFFF84E
000005FA
FFFFF969
FFFFFD62
00000213
FFFFFDED
00000A7A
0000005D
FFFFFCB2
FFFFFE53
00000A48
00000916
FFFFFF78
00000866
0000090E
0000098F
FFFFFF6A
FFFFFD70
00000A41
FFFFFA21
00000204
00000A96
FFFFFFD9
000003B0
0000077A
000005EB
00000190
0000077E
0000013E
FFFFFDBA
FFFFFAC4
000001DF
000007BE
FFFFFCF7
00000387
00000392
FFFFFA8E
00000916
FFFFF9C5
0000089C
000007EA
FFFFFF5B
0000083E
000009CE
0000019A
000007F7
FFFFFD69
FFFFFF06
00000385
0000067E
00000594
0000020F
00000465
000006B5
000008D5
FFFFFD01
FFFFF5B0
00000577
00000584
000006A4
FFFFFDDA
0000029D
000003F6
000005A7
FFFFFF0B
0000069B
000002FC
000007BA
FFFFF9A8
0000031B
00000996
00000608
FFFFFF46
FFFFFC94
FFFFFFA2
0000050B
0000057D
000002BA
0000078F
000002BD
00000650
00000307
000007E8
00000797
FFFFF71B
00000499
FFFFF98C
FFFFFFA3
FFFFF873
000000B0
0000089A
0000043A
00000884
FFFFFB55
00000198
FFFFFF8D
FFFFFA38
00000236
FFFFFB46
FFFFFD80
FFFFFAE2
FFFFF950
FFFFFDEE
FFFFFCE0
FFFFFED1
FFFFFF66
FFFFFFE4
FFFFFCEF
00000B33
00000AEB
0000068D
FFFFFE39
FFFFF9C5
FFFFFA41
00000007
000005B1
FFFFF77A
FFFFF8C4
00000339
0000053B
FFFFFD1A
FFFFF9D8
00000428
FFFFFA44
FFFFFAE2
00000971
00000A1A
FFFFFAEB
0000079A
0000002C
FFFFFC6E
FFFFFB99
000004D5
FFFFFA1D
000006A2
00000650
00000978
00000AAB
00000239
00000091
FFFFFAE0
00000216
FFFFF6AE
FFFFF7B1
FFFFF6BE
FFFFF9B9
00000811
00000873
000002BF
FFFFFEB5
FFFFFF5A
FFFFFF07
FFFFFE35
000003F0
0000046F
00000315
FFFFFA2B
FFFFF947
FFFFFBE8
FFFFFD94
00000211
FFFFFFF6
FFFFFED1
000000EA
FFFFFEFD
00000159
FFFFF92F
00000347
000001B9
FFFFF8DF
0000040C
000008A7
FFFFF72C
FFFFF882
FFFFFAAA
000003CB
0000003C
000003DC
FFFFFFB3
00000676
FFFFF8DB
FFFFF9A6
FFFFFA33
FFFFF9FC
FFFFF8CF
000003AC
FFFFFB5E
00000946
000002BD
000004B4
000002C0
00000279
00000170
00000312
000009F8
FFFFFC04
FFFFFB3C
FFFFFCA8
000005E3
FFFFF78A
00000790
0000019F
00000829
0000069D
00000414
00000499
000005D6
00000770
00000502
FFFFF8D2
FFFFFA40
FFFFFC0E
FFFFF845
FFFFFB8C
000002F2
000006C6
FFFFF8A8
FFFFFC8C
FFFFFE5D
0000057C
FFFFFEFD
00000C5A
FFFFFC53
FFFFFE88
FFFFF665
FFFFF910
0000018C
00000572
FFFFF7EF
FFFFFC5C
FFFFFC05
00000256
FFFFFBC2
00000678
FFFFFB16
FFFFF9C5
0000007C
0000070F
FFFFFB11
0000080B
00000154
0000064D
FFFFFC05
000007CC
0000066C
00000091
0000013D
FFFFF837
00000646
00000BC0
00000894
FFFFFC7E
FFFFF7F6
FFFFF614
0000057F
FFFFF99A
FFFFF761
000006F3
FFFFFA78
FFFFFBD7
000003E9
000000B0
FFFFFA7D
FFFFFCF1
00000861
0000027D
00000142
FFFFFE47
00000927
FFFFFC2E
0000043C
FFFFFD5F
0000042F
000005D2
FFFFF8A4
00000154
000002A1
FFFFF7B1
000008A5
FFFFFA68
FFFFFA6A
FFFFFEB7
00000439
FFFFFCEA
FFFFFA23
000006F5
000000FF
0000015B
00000188
FFFFFE2C
FFFFFB23
00000790
FFFFFE1E
000003FD
FFFFF8E3
FFFFF9AA
FFFFFCEC
FFFFF9F6
FFFFF9BF
00000502
FFFFFFFD
FFFFF5A0
0000015E
00000254
0000017B
FFFFFB9A
FFFFFEB8
00000413
FFFFFCDE
0000071B
000002D3
0000009B
FFFFFB03
FFFFF8EC
FFFFFE26
FFFFFD36
00000739
FFFFFBD3
0000006D
00000874
00000605
000009F2
FFFFFD29
00000945
FFFFFCE3
0000045D
00000646
FFFFFA46
FFFFF787
00000181
FFFFFB14
FFFFFE61
000005DF
000000F9
0000017D
FFFFF6F5
FFFFF81F
FFFFFAB5
FFFFF969
FFFFFD2C
00000401
FFFFFD94
0000040D
000001E2
FFFFFA3A
000009EB
00000535
000001D6
FFFFFF6A
00000914
000006F2
FFFFFCEF
00000659
00000959
FFFFF7E8
00000096
FFFFFD3D
FFFFFA64
FFFFFEE7
FFFFFDBC
FFFFF7E5
FFFFFF92
FFFFFB21
000000BA
0000060E
000005DE
FFFFFDCA
000005DF
0000025D
00000867
000000A9
FFFFFB7E
000001E0
FFFFFFCA
0000091E
000006D6
0000089D
FFFFFB31
FFFFFBD1
0000072B
FFFFF8B4
FFFFFC92
0000021A
FFFFF889
FFFFFB18
000002F7
FFFFFAB1
00000701
000002B1
00000268
00000A99
000000B6
000008F6
000007F3
0000048F
000004BB
FFFFFD6D
0000017B
00000628
0000021C
FFFFFAA4
FFFFF98D
000002C3
0000058D
00000422
00000966
000005A4
FFFFF8BC
0000047B
000008F9
FFFFFA68
00000536
0000048A
FFFFF76C
FFFFF749
00000479
FFFFFA30
00000679
00000650
00000451
0000059A
00000050
000007F0
FFFFFA93
FFFFFFE7
FFFFFFC9
00000A10
FFFFF9B4
0000018E
00000956
000006D3
FFFFF986
FFFFFE6D
FFFFFC3C
FFFFFCD5
0000011A
0000007E
FFFFFE0B
0000031D
FFFFF90E
0000053A
0000000F
0000083E
FFFFFEEB
000003E7
00000230
FFFFFD45
FFFFFAB9
FFFFFBDF
FFFFFA6C
0000084E
FFFFFBF4
FFFFFAED
00000688
00000669
00000227
FFFFFD40
FFFFF975
00000A27
0000016D
000005A8
FFFFFD1B
FFFFFD7D
FFFFFEBF
FFFFFDDE
00000951
000008AB
FFFFFF45
00000578
FFFFF868
0000036F
00000401
00000726
000001E9
000000FE
00000702
000003A2
000006F6
000009A7
00000372
000003E6
0000063F
FFFFF8B3
FFFFFEB0
000006A2
000004F3
FFFFF9DB
00000000
00000000
00000000
00000000
00000000
00000000
00000000
00000000
00000000
00000000
00000000
00000000
00000000
00000000
00000000
00000000
00000000
00000000
00000000
00000000
