00000000
00000000
00000000
00000000
00000000
00000000
00000000
00000000
00000000
00000000
00000000
00000000
00000000
00000000
00000000
00000000
00000000
00000000
00000000
00000000
000002EB
00000148
FFFFFE81
000009E5
FFFFFC71
FFFFFEC9
FFFFFB18
FFFFFAB5
00000426
0000060E
FFFFFE03
00000498
00000BE7
FFFFFB63
00000301
FFFFFFC2
000005CE
0000081C
000006D2
000005F3
00000C00
0000015E
FFFFFB3D
000008AA
00000080
0000071C
FFFFFA6D
FFFFFDDB
FFFFFE13
000007AB
FFFFFD1C
FFFFFD4F
00000B28
0000044F
0000013C
000009C1
000009B9
FFFFFF93
00000BE9
00000AFC
0000005C
0000002C
000008D8
000009C0
FFFFF366
00000519
0000062F
0000091A
00000018
FFFFFF08
00000361
00000006
FFFFFEFE
00000A6C
00000A2A
00000A8F
000008CA
00000A22
00000207
00000AB4
000004B8
0000098C
00000B05
FFFFFEF1
00000728
FFFFFA7D
000008F2
000003A3
00000371
000004BD
FFFFFD28
FFFFFD80
00000237
FFFFF3D6
00000351
FFFFFEB8
00000AFF
FFFFFF74
FFFFFDA8
00000A85
FFFFF757
FFFFFD71
00000BEB
000004D0
000009BB
FFFFFF78
000000CB
0000010B
FFFFFE06
000004D1
000007DC
0000076A
0000021F
FFFFECC3
FFFFE51C
FFFFE267
FFFFD8D3
FFFFE025
FFFFDC73
FFFFDF4A
FFFFC960
FFFFD0AE
FFFFE955
FFFFF8FB
FFFFF2A0
000005E5
00000B6B
000008FF
0000041C
FFFFF96E
0000048A
00000BA4
0000067E
00000BF1
000004DE
000003F0
000009A4
FFFFFE70
FFFFF0E1
FFFFE72D
FFFFDFED
FFFFC772
FFFFD049
FFFFCE2C
FFFFEF64
FFFFEF6D
FFFFF9B0
FFFFF459
FFFFF54F
FFFFE698
FFFFF2C1
FFFFFFFA
FFFFEC61
000004A5
0000211E
00002551
00000E46
FFFFFCD3
0000013C
000007A9
FFFFFBB8
00000879
FFFFFA11
0000037A
FFFFF79D
FFFFF41F
FFFFE802
FFFFDDFC
FFFFC6E3
FFFFCBA0
FFFFE023
FFFFEBC8
FFFFFFD7
FFFFFBC8
000003E2
FFFFF3CC
FFFFF946
00000417
FFFFFB8D
00000858
0000132F
0000175C
00003D5D
00005EB8
0000352E
00000592
00000E43
00000769
00000A8A
00000506
000008A3
FFFFF17A
FFFFEE61
FFFFF1BA
FFFFD32B
FFFFCF23
FFFFD2ED
FFFFE083
FFFFECF7
00000348
00000316
00000F47
00001006
00000B7A
FFFFFB35
FFFFF8C6
FFFFF3B4
000022C5
00001CF7
FFFFF5EB
00002BB6
00007F67
00005F2D
00002DDA
0000143C
0000085C
FFFFFB96
00000633
000000E9
FFFFF09A
FFFFE3BF
FFFFEA7B
FFFFCF65
FFFFE4A3
FFFFFA84
FFFFFACC
00000806
00000853
00000F35
00000F40
0000321B
000024FE
000013F2
00001879
00000148
000002DC
000011E6
00000B64
0000131D
000068D7
00007590
000049FE
000018F4
FFFFFFEE
000000DC
00000087
FFFFF785
FFFFEC30
FFFFD79C
FFFFDFF8
FFFFE09C
000000EE
0000071C
0000181A
FFFFFA5E
00000948
000010B3
00001FD6
FFFFF2E4
FFFFF8EA
FFFFFEBB
FFFFFE54
FFFFFA7F
00000A54
00000BDC
000022F5
0000117F
000050DF
0000850E
00005953
00001825
00000076
000007FF
00000709
FFFFFBEF
FFFFD847
FFFFC206
FFFFC950
FFFFFCD7
000018D3
0000104D
000002BC
00000337
00000DE7
FFFFE1A0
FFFFD1F0
FFFF9B29
FFFFB24B
FFFFBF0D
FFFFEA61
FFFFF441
FFFFF371
00000F0F
00002B98
00002994
00004DF4
0000784E
0000515D
00001045
00000488
000006AE
FFFFFEE3
FFFFF146
FFFFDA4F
FFFFD70C
FFFFCD24
FFFFEB42
00001343
00001D74
00001638
000024E2
00000A0C
00000B7F
FFFFE9E9
FFFFB842
FFFFAFA8
FFFFA1DD
FFFFD51A
FFFFCCC9
FFFFDD92
FFFFDE56
FFFFFC9F
000007E4
0000288E
00004E5B
0000423F
00001058
FFFFFBEE
00000A41
FFFFF6B3
FFFFEEA7
FFFFDB7D
FFFFC86D
FFFFF4E7
00000C18
00001407
0000241F
000026CC
0000184C
00001384
000035AB
000043BC
00002D07
FFFFFD7A
FFFFE9B4
FFFFD9C7
FFFFE914
FFFFD096
FFFFC941
FFFFC98E
FFFFD514
FFFFF22C
00001059
000026E6
000007B4
FFFFFA5E
00000C0A
000001CB
FFFFED72
FFFFDAF1
FFFFCE0D
FFFFF942
00003C60
000025D2
00001761
0000226E
00002DC2
000034FF
00006403
0000B69E
00009C3B
0000576F
FFFFF95F
000017F6
00002D71
0000087B
00000384
FFFFE563
FFFFC5F7
FFFFD9BE
FFFFDF7E
FFFFEFC1
00000063
FFFFFC3C
00000236
00000546
FFFFF555
FFFFE622
FFFFEB05
00000A2A
00002F04
00002EC5
000035A9
00002EAB
00001DDA
00001693
0000654F
0000A377
00009A47
000053DD
0000138C
00002EB1
00002530
000030CD
000012AE
FFFFF399
FFFFD671
FFFFBE3A
FFFFC6E6
FFFFE2AC
FFFFF8A2
000005A2
FFFFFBE6
000000B1
FFFFFB52
FFFFF252
FFFFF368
00000EA1
000014B3
00000650
000027F6
00002242
0000054F
00000A1B
0000576B
00008FC9
00009F76
00004D12
000014C3
0000202E
FFFFD8F3
FFFFE92E
FFFFD7C2
FFFFD649
FFFFBD98
FFFFAB82
FFFFCB5A
FFFFD79C
FFFFF5E2
000004A0
00000B2D
00000A50
00000593
FFFFF4E0
FFFFE4D4
FFFFD18B
FFFFCFAA
FFFFE093
00000C0F
00001623
FFFFFA33
000020D5
00007E86
00009496
00007D33
00000C8D
00001A37
FFFFE074
FFFFD34E
FFFFC490
FFFFA140
FFFFBCFA
FFFFC3B4
FFFFD336
FFFFC47B
FFFFCCAB
FFFFEE71
0000073B
000008AB
00000B51
000006A2
FFFFF35B
FFFFD24A
FFFFC5B8
FFFFB029
FFFFBC3B
FFFFC324
FFFFD0F9
FFFFE3A2
00002CC7
00006AB8
00007591
00004DE4
FFFFF67C
FFFFF166
FFFFD414
FFFFD72E
FFFFBFA0
FFFFB2BB
FFFFC42F
FFFFDB85
FFFFE151
FFFFC1E1
FFFFBED3
FFFFE011
00000725
000003A7
00000700
FFFFF997
FFFFE635
FFFFD32D
FFFFC88A
FFFFDD72
FFFFC37D
FFFFB39D
FFFFC91B
FFFFFDA8
0000113E
0000249A
0000203D
FFFFFF0E
FFFFD4DB
FFFFE9C9
FFFFCC13
FFFFE5A7
FFFFC62C
FFFFC8EE
FFFFE2F2
FFFFE7E6
FFFFDF6F
FFFFBE25
FFFFB22A
FFFFE956
FFFFFE4E
00000548
FFFFFF39
000002C2
FFFFE331
FFFFDBC7
FFFFD737
000010CD
FFFFE767
FFFFE75A
FFFFFF9C
FFFFF2B9
FFFFF71A
FFFFE0D3
FFFFD22A
FFFFF1D1
FFFFEE94
FFFFEEE1
FFFFE771
FFFFE9B2
FFFFDB99
FFFFEA6C
FFFFDA83
FFFFD1B8
FFFFDF0C
FFFFC116
FFFFC8CC
FFFFF8D9
FFFFFC60
FFFFFE6C
FFFFF9A4
FFFFFF48
FFFFDE26
FFFFDCC9
FFFFE6D3
00002091
00000071
00000F86
00001207
00000857
FFFFE570
FFFFB2B4
FFFFDD5A
FFFFF939
00001857
000011DA
FFFFEBF3
FFFFFB7C
FFFFFC1F
0000080D
FFFFFDBB
FFFFEF25
FFFFE6C5
FFFFCD11
FFFFE6EF
000001BB
000004E0
FFFFFC8F
000006BE
0000047E
FFFFED29
FFFFCC9C
FFFFE704
00001AB4
000018EE
00001FC8
0000009C
FFFFF718
FFFFEC96
FFFFD991
FFFFD24D
FFFFDBED
FFFFE060
FFFFFACC
00000048
FFFFFC94
FFFFF0EB
FFFFF765
000003BE
FFFFF96C
FFFFD8C8
FFFFCB62
FFFFEEFA
00000561
FFFFFA48
FFFFFDF0
FFFFFD86
000000BC
FFFFF5E1
FFFFDED6
FFFFEA81
0000068A
00001DFD
00002ABA
0000095D
FFFFEEFB
FFFFEF43
FFFFE959
FFFFEF06
FFFFFACA
000005DF
FFFFE353
00000A4C
FFFFF753
FFFFF240
00000E8E
00000A15
FFFFEF75
FFFFD625
FFFFD679
FFFFF962
000004CD
00000ACE
000009A3
000005BC
00000977
FFFFF5FD
FFFFF578
FFFFF2C3
FFFFF39E
FFFFF6C4
FFFFF1D8
FFFFEDE1
FFFFFBA6
00000158
0000003C
00002328
00001992
0000059B
000021C1
00003733
00003470
0000261E
00001622
000001FC
FFFFD3D9
FFFFEEDD
FFFFF2EE
0000060F
00000A5F
FFFFFB49
00000368
000002C7
00000BA2
FFFFFB4A
FFFFFA2E
0000011D
FFFFF3BE
FFFFE0AF
0000183E
00000F62
000021F6
00001C15
00002F98
000029AF
00002955
00002A58
00006084
00005216
000037CE
000031AD
00002842
00000494
FFFFE6FD
FFFFF65C
FFFFFA03
FFFFF960
00000799
FFFFFAC4
000003B6
00000821
00000EAB
FFFFFE63
FFFFFD62
FFFFEAEA
FFFFE2ED
FFFFE6AD
FFFFF736
00000E23
00001656
00000DB4
FFFFFDE6
FFFFFDAE
FFFFF447
00000560
00002E64
000025AF
00004309
000046C3
0000258D
00001220
0000052D
000004E6
FFFFF76B
0000091C
00000B64
00000596
00000291
00000086
00000B22
00000075
000003BD
FFFFF052
FFFFEC34
FFFFEA65
FFFFE6DB
FFFFF3E5
FFFFFE1F
FFFFF2BB
FFFFF4F6
FFFFF4A4
FFFFEAF4
FFFFF29E
FFFFF189
FFFFF8CE
FFFFF2D4
FFFFFD1A
000007F8
000011E6
00001452
0000115F
00000405
FFFFFBCA
00000A2A
00000C13
000003D3
000003F1
00000404
000000A6
FFFFFD2F
FFFFFA64
FFFFF900
FFFFE942
FFFFE154
FFFFDCA2
FFFFE2BB
FFFFEC43
FFFFED9A
FFFFEB89
FFFFDF01
FFFFDAC6
FFFFD8C7
FFFFE3C9
FFFFEAC8
FFFFEEE1
FFFFF5E7
FFFFF71E
00000239
00000063
000009DA
FFFFFA51
FFFFFE5D
00000233
00000596
0000043B
000007B2
00000A1C
000007D6
00000489
FFFFFFFF
00000770
00000031
FFFFFF96
FFFFFB0D
000001A9
000002DE
FFFFF5D3
FFFFF4B6
FFFFFDB3
FFFFF777
000001F5
FFFFF3DA
FFFFF99E
FFFFFEB7
FFFFFD5C
FFFFFFE9
00000AAC
0000011E
0000007E
0000059F
00000294
00000000
00000000
00000000
00000000
00000000
00000000
00000000
00000000
00000000
00000000
00000000
00000000
00000000
00000000
00000000
00000000
00000000
00000000
00000000
00000000
