00000000
00000000
00000000
00000000
00000000
00000000
00000000
00000000
00000000
00000000
00000000
00000000
00000000
00000000
00000000
00000000
00000000
00000000
00000000
00000000
000000A2
FFFFFB21
000003DB
000008B3
000008CD
00000506
FFFFFD01
000008E2
0000028A
FFFFFA15
000005D1
0000072B
FFFFFC73
00000648
00000997
0000083D
00000978
000008C8
0000045C
FFFFFF3B
FFFFF903
0000003B
00000588
00000548
0000041A
000005A4
000004AB
0000057A
FFFFFD99
000007F1
FFFFFC15
00000009
000000D4
000000DA
00000893
FFFFFDAA
00000946
000006BC
FFFFFA0C
FFFFFE0A
000003C1
00000608
00000685
000008F0
FFFFFB1C
FFFFFEAA
FFFFF9DD
FFFFFE86
000009D1
00000642
FFFFFD76
FFFFFC73
000005C3
000002EB
00000970
00000306
000005B9
FFFFFF85
00000658
00000026
000001EC
0000025D
000000C3
00000440
0000072B
FFFFF599
FFFFFA1B
FFFFFAAC
000005A3
FFFFFF85
00000203
000006D7
0000086F
00000971
00000634
FFFFF8FA
FFFFFE19
FFFFFFEA
0000061C
FFFFF87E
FFFFF9CC
FFFFFEA6
FFFFFC96
FFFFFF0C
00000112
FFFFFE11
0000029A
FFFFF8BC
FFFFF989
00000829
000005EA
00000038
0000009F
FFFFFF5E
00000267
000004CD
00000063
FFFFF987
00000912
FFFFFE3A
FFFFF96B
FFFFF8A8
FFFFFD19
FFFFFEFB
00000829
FFFFFF6C
FFFFFEA7
FFFFFE99
FFFFFF24
00000935
FFFFFB61
FFFFF9FB
FFFFFAD5
FFFFFD2C
FFFFFF04
00000909
00000908
000000DD
000006FE
FFFFFD3D
00000159
FFFFFF6F
FFFFF8CF
00000773
FFFFF8E9
000004BB
000008CF
FFFFFFBD
00000985
FFFFFE79
FFFFFF45
FFFFF9B6
FFFFFCE2
000004F2
FFFFFA23
0000094F
0000063C
FFFFFC07
00000973
0000060F
000006AA
000004EA
FFFFFFE3
FFFFF8B4
000009FF
000008EA
FFFFFC5B
000000E6
0000027C
FFFFF96E
00000583
00000680
FFFFFAFE
00000607
00000236
00000146
FFFFFD24
0000093F
FFFFF958
000007B5
00000561
FFFFF8D1
000000B6
FFFFFD65
000004C6
FFFFFE0B
000001B6
FFFFF9E0
000006D9
FFFFFF71
FFFFFE8B
FFFFF920
0000018A
FFFFF892
FFFFFCE2
00000610
FFFFFA8E
FFFFF815
0000071F
000006E2
0000070A
FFFFFEB1
FFFFFEE5
FFFFFAAF
FFFFFC3A
0000086D
0000040E
000003B6
FFFFF9DE
000008AE
00000A50
FFFFFA1A
000004B2
00000344
00000A6E
FFFFFC98
000003E5
FFFFFB73
000007DC
FFFFFFC0
FFFFFDD0
000008A5
FFFFFFED
000003CF
00000179
FFFFF9B7
0000004B
0000042F
00000351
FFFFFBA1
00000955
000004B4
FFFFFDDB
FFFFF926
FFFFF865
00000674
FFFFFE0C
FFFFFBD1
00000609
FFFFFE65
000009E1
000003C3
FFFFFBD4
00000385
000009EF
FFFFF8B5
00000370
00000710
FFFFF950
00000586
0000034D
FFFFFDB2
00000135
000006BF
00000024
FFFFFF67
000009C9
0000087F
FFFFFA3B
FFFFFB1B
FFFFFF8D
FFFFFB12
FFFFFF78
FFFFFC85
0000062A
FFFFF88C
FFFFFB81
FFFFFDA2
000000BE
000005E5
FFFFF843
FFFFFF05
000003B5
FFFFFF8E
FFFFFEEC
FFFFF9B3
FFFFFBB8
FFFFFB4B
00000296
00000427
00000371
00000704
FFFFFCC6
00000046
000003DE
00000237
FFFFF9C6
FFFFF8BA
FFFFFBB7
FFFFFD39
FFFFF965
0000040D
FFFFF5F9
00000048
000006C2
000006E8
00000A33
00000053
FFFFFE75
00000263
00000391
0000005C
00000139
00000079
FFFFFED7
000007C8
FFFFFFBA
FFFFFE60
FFFFF9BA
FFFFFF66
000008DC
FFFFFB66
FFFFFCE7
0000028A
FFFFFA30
FFFFFC51
FFFFFFB9
FFFFF933
FFFFF782
000004AA
00000148
00000096
FFFFFB83
000002A5
FFFFFCDA
FFFFFC36
000000AA
000004C3
FFFFFD1E
000000D6
00000009
000003A3
FFFFFF63
00000358
000005F4
00000399
FFFFF95D
FFFFFDB1
FFFFFD13
00000398
00000471
FFFFFDF4
00000899
00000849
FFFFF87C
FFFFF7DB
00000482
FFFFFAD4
000005B6
FFFFFCFC
FFFFFB35
FFFFFF3D
FFFFFCAB
000002DE
0000071F
0000071E
000000AF
000001DE
FFFFFB12
000001B8
FFFFFC96
FFFFFCE2
FFFFF753
FFFFF5D8
00000618
000008C6
0000028E
FFFFF8B8
FFFFFF0B
FFFFF87B
FFFFFDF8
0000070A
00000264
000004DC
FFFFFB53
000003E3
0000020C
00000720
000000EC
0000032F
000004CC
FFFFFC9B
0000042B
000007F1
FFFFFE84
FFFFFD6A
000006E3
000001D1
0000077C
000009F8
FFFFF709
0000079A
FFFFF67F
FFFFFBDD
FFFFF8CA
00000380
00000905
00000702
000004E8
FFFFF741
0000056D
00000159
FFFFFCD9
FFFFFFD3
FFFFFD00
0000053D
FFFFFE6F
FFFFFA6D
0000056D
000006F7
000009E8
000006E1
0000014F
FFFFFFC7
FFFFFCDA
00000243
00000706
0000014E
FFFFFB64
FFFFFFC8
000001A2
000004F0
FFFFFBEF
000008A2
FFFFFEEA
00000712
00000033
0000072F
0000034E
FFFFFEEF
0000011D
FFFFFF69
00000149
0000064C
00000555
FFFFF88E
0000074B
0000031D
000002CB
000006D1
0000076C
FFFFF9DE
FFFFFA23
00000071
00000A0C
0000094A
FFFFFE67
000005FE
00000265
FFFFFC4C
00000190
FFFFFF7C
00000647
FFFFF9AB
FFFFFBC0
FFFFFBEC
00000519
00000134
FFFFFDB2
00000288
FFFFFFDE
FFFFFE5B
00000A10
0000017F
FFFFFF33
00000857
FFFFFCCF
000006C9
FFFFF897
FFFFF85A
FFFFFF7D
000003CD
FFFFFC21
FFFFFE1E
FFFFFFA6
FFFFFFDC
FFFFF596
FFFFFFE4
00000158
000000C2
000000E9
00000338
FFFFFAE7
FFFFF727
000007E1
0000048F
FFFFFC6B
FFFFFDAF
FFFFF8B0
FFFFF9CA
FFFFFD9A
FFFFFF64
0000055C
0000006E
000003FE
000006E4
00000456
FFFFFABE
00000319
0000014F
FFFFFA4D
FFFFFFEC
000003DA
00000032
FFFFF8CF
FFFFFF12
0000069A
000004F4
FFFFFDDA
FFFFFB57
00000629
FFFFF7E3
000002E3
0000087E
00000854
00000675
000002B6
00000649
FFFFF94F
00000510
00000329
000009D9
00000181
0000080B
FFFFFBDF
00000229
000008CE
000002D5
FFFFFE5F
0000026D
FFFFFD9B
00000212
00000482
FFFFFBF6
FFFFFF59
000004F4
00000713
FFFFFD8B
00000897
000003B8
000006F1
FFFFF81D
000003BB
FFFFFD33
FFFFFC33
00000053
00000528
FFFFF8A1
FFFFFCB9
000000E1
FFFFF9F2
FFFFFAD4
000001D7
FFFFFDF4
FFFFFFA7
00000911
00000755
00000189
FFFFF917
0000089A
0000054B
00000030
000001A6
0000009F
00000003
0000049B
00000136
FFFFFCE6
00000747
FFFFFAE1
FFFFF7BA
FFFFF7A4
0000038D
FFFFF66C
00000421
0000062C
000000B0
FFFFFD6B
000001DE
FFFFFB2F
FFFFFBE9
FFFFFD5D
FFFFFB33
00000373
FFFFFACE
00000593
00000475
00000407
FFFFFF53
0000068D
FFFFFC53
00000869
FFFFFAFD
000000A5
000000F4
FFFFFEC2
FFFFFED6
000003AC
000000AF
0000045F
00000782
00000212
00000478
FFFFFFB1
FFFFFA42
0000040B
FFFFF895
00000835
000002DF
FFFFF92C
0000007E
00000869
00000A70
000002BE
000007D3
FFFFFE66
0000084C
FFFFFDA4
FFFFF92F
FFFFF86F
00000025
000001D8
000007A1
FFFFF670
FFFFF760
00000394
FFFFFFD2
0000064B
000001FC
00000A28
000006CB
0000093D
000004B9
FFFFFBBC
00000880
00000752
000004A5
0000059E
0000037F
FFFFF908
FFFFFE71
FFFFF896
FFFFFBAD
000005E3
FFFFFD39
000004A3
00000A34
00000A6B
0000025C
FFFFF8C5
000006A9
000003C2
FFFFFCA3
FFFFF906
FFFFF974
000002AB
000002F5
00000791
0000018D
00000457
FFFFFE8E
00000745
00000821
000009E1
00000723
FFFFFCA1
000000F0
FFFFFDE5
00000933
0000091D
0000005B
FFFFFB39
FFFFF923
000004BF
00000A20
00000403
000009DB
FFFFFAC5
00000800
000004D9
00000441
000009D6
00000227
0000085C
000009BC
FFFFFC0B
FFFFFE6B
FFFFFAB6
FFFFFB6C
00000177
00000814
FFFFFACF
000008E2
FFFFF90F
FFFFFEB1
FFFFFC63
000002C4
FFFFFB0E
FFFFFE77
FFFFFE09
00000871
0000038F
00000A31
00000001
FFFFFD52
000005AD
0000014E
FFFFFFFF
FFFFFA2E
00000350
FFFFFD94
000007DF
00000A19
FFFFFF01
FFFFFF6A
FFFFFB3C
000009E8
00000A4C
000003D7
FFFFFE45
0000051E
FFFFFBE3
FFFFFC36
00000436
0000083B
000001B9
FFFFFE84
0000071E
FFFFFB54
FFFFFC68
0000087B
FFFFFE4B
000009D4
00000326
000008AF
00000586
FFFFFC38
000004A7
00000822
FFFFFC36
FFFFF96D
000002E5
00000104
00000A47
FFFFF8E3
FFFFF981
0000084C
000003F6
000007B3
0000055C
FFFFFCA2
000004FA
FFFFF855
FFFFFD69
FFFFFDB4
000003ED
FFFFFCAF
FFFFFA8A
FFFFFE2D
FFFFFF97
0000027D
FFFFFF13
FFFFF8FE
FFFFF875
FFFFFE9D
FFFFFE91
FFFFFBF5
FFFFFF0B
FFFFFC9D
00000211
FFFFFE75
00000A1F
000005AD
00000957
000002A8
00000A54
FFFFFE19
000008CA
000005ED
FFFFFE01
FFFFFBCE
FFFFFA5D
00000807
000004B3
000003C3
000005D0
FFFFFFB9
0000098B
000001DC
FFFFFA28
00000A2B
00000567
00000342
FFFFF944
000008A1
FFFFF83D
000003EF
000003F4
FFFFFE99
FFFFFE40
0000076F
000002AA
FFFFFB37
FFFFF9C4
00000000
00000000
00000000
00000000
00000000
00000000
00000000
00000000
00000000
00000000
00000000
00000000
00000000
00000000
00000000
00000000
00000000
00000000
00000000
00000000
