00000000
00000000
00000000
00000000
00000000
00000000
00000000
00000000
00000000
00000000
00000000
00000000
00000000
00000000
00000000
00000000
00000000
00000000
00000000
00000000
FFFFFD28
00000012
00000678
00000864
FFFFFA42
000006B3
FFFFFCA7
0000086F
0000097E
FFFFFC22
FFFFFB7B
0000029B
000002AB
FFFFFD21
FFFFFDAD
000004F8
FFFFFFD8
00000952
000005C6
0000088A
000000E9
0000074B
FFFFFBCF
0000096B
0000086B
FFFFFEE9
FFFFFFA0
FFFFFC44
00000911
00000A13
FFFFFD2A
000004F1
000002FF
FFFFFF2D
FFFFFD09
FFFFFE3A
00000382
00000A97
FFFFFF2C
0000001B
000006EA
FFFFFAFA
000007A6
0000070E
000007FE
000006D1
FFFFF964
0000016C
FFFFFCB4
000002FD
FFFFFFE1
0000016B
0000011B
FFFFFAE2
FFFFFCF6
FFFFFA7F
00000228
FFFFFC01
FFFFFD8B
000009AD
FFFFFA1D
FFFFFCD4
FFFFFE5E
00000952
000007A7
000008F4
000004E2
FFFFFA40
000002AE
00000327
FFFFFE39
00000534
FFFFFD1A
FFFFF939
0000035F
000003DD
FFFFFE6A
000002BD
00000627
FFFFF913
000008F4
0000077D
000002EF
FFFFFFFC
000006A2
000000ED
000002B2
00000A37
FFFFFB5D
FFFFFD27
00000746
FFFFF92F
0000071F
000001E4
FFFFF958
0000012F
00000A5A
FFFFFAA7
000005C3
000002A6
FFFFFCE6
0000021D
000002F3
0000058F
FFFFFEC7
FFFFFC64
00000241
0000054E
FFFFFF7D
000009C2
0000071F
0000069B
000003BD
000001BD
000006F8
000003E5
FFFFFE5A
00000877
00000348
FFFFFFF5
FFFFFD02
0000080B
00000ACA
FFFFFB30
FFFFFD7B
FFFFF9E9
00000133
FFFFFFC6
000004B0
FFFFFEA5
FFFFFFB3
FFFFFD7F
FFFFFE47
FFFFFD5B
00000839
FFFFFA50
0000082A
FFFFF9CB
0000083B
00000ACB
0000088C
0000051E
00000574
FFFFFD50
FFFFF905
000002F2
00000281
00000612
FFFFF98E
00000529
00000014
FFFFFE7E
00000B00
FFFFF9FD
0000069B
000004D7
FFFFFA29
FFFFFA4A
00000970
FFFFFBB3
000008AE
FFFFFE40
FFFFFD06
FFFFFB14
FFFFFE16
FFFFFAB1
FFFFF9AA
0000048E
0000066B
000009C9
0000090A
0000011C
00000856
00000639
FFFFFF0A
FFFFFD05
FFFFFC3F
000006EB
000007F5
0000058F
FFFFFB4F
000004CB
FFFFF647
FFFFFD38
FFFFFA9D
FFFFFF17
FFFFFF3F
FFFFFB3A
FFFFFFFC
000009B7
00000399
FFFFFB8F
FFFFFAEB
FFFFFFE9
00000880
000009B9
FFFFF903
000008AA
0000021F
FFFFFC05
0000018A
000006BA
FFFFFD07
0000007A
FFFFFF5F
FFFFFCD6
FFFFFE69
000004A4
0000071A
FFFFFCE1
0000013D
FFFFF497
0000015C
FFFFFA45
000005C2
FFFFFAC6
FFFFFED6
0000034E
00000721
0000025B
000009B4
00000633
FFFFFC96
00000834
00000339
FFFFFE40
FFFFFD55
000005C9
00000120
00000371
00000A2F
00000620
FFFFFFD4
FFFFFB13
00000505
FFFFF5CA
0000064E
FFFFF65F
FFFFFD65
FFFFF91C
FFFFFB4C
FFFFF8B5
0000066A
FFFFFBF1
FFFFFE1D
0000017E
000008BA
FFFFF92B
FFFFFCFA
FFFFFD5E
000001FF
FFFFFF1B
FFFFFA58
000001ED
00000817
FFFFFF73
FFFFF904
FFFFFCD4
00000964
000001AC
000007BE
FFFFF99C
000002BE
FFFFF6EB
FFFFFC38
FFFFF7CD
FFFFFD52
000002E0
FFFFFDD9
FFFFFE1C
FFFFFC5B
FFFFFCFA
0000027A
FFFFFA1D
FFFFFFD3
FFFFFC64
FFFFFBE6
0000098A
00000A6A
FFFFFFE7
00000ADF
FFFFFD08
0000093A
FFFFFFC1
0000042F
FFFFFB50
FFFFFAC6
00000427
00000371
FFFFFBB6
FFFFF81A
FFFFFB6F
00000460
0000024B
FFFFFF70
000007F9
00000505
0000068A
00000622
00000486
00000650
FFFFFE42
0000074D
FFFFFEC7
000004DB
000003A3
FFFFFF2C
0000017A
00000289
00000079
FFFFF921
FFFFFC27
0000045A
00000ABB
00000522
000008DC
FFFFFD9E
FFFFFC89
FFFFF596
0000034F
FFFFFEBE
0000099B
0000028B
FFFFF86E
00000587
000007C9
FFFFFCB5
FFFFFC4F
00000199
FFFFFD5D
0000015F
0000025C
000000C7
00000019
FFFFFDD5
FFFFFC59
000006AC
FFFFF97B
0000086E
00000685
00000604
000003C3
0000091C
0000007E
000001B0
00000333
0000010D
000001C9
FFFFFAE3
0000020B
FFFFF9BB
000009F8
0000033B
00000361
FFFFFE9E
00000554
FFFFFE41
FFFFF967
FFFFF8B4
000001E2
0000030F
0000027D
0000017D
FFFFF9DC
FFFFF921
FFFFFF84
00000348
FFFFFF1B
FFFFFA2B
FFFFFC72
000006D9
0000019B
00000552
FFFFF6E2
00000573
000005C1
00000304
FFFFFC76
FFFFFBA1
FFFFFD8D
000005C1
FFFFFB06
FFFFFAD0
FFFFFD97
FFFFF476
FFFFFE62
000002B5
0000090F
00000190
FFFFFEED
0000000B
00000439
000005AE
00000679
00000B19
0000013B
FFFFFC35
FFFFF91D
0000077D
00000612
FFFFFAE7
000007FC
FFFFFCF8
0000074F
FFFFFA48
FFFFFFC5
FFFFFBF4
00000460
00000710
00000678
0000065F
FFFFF8E8
FFFFFA03
FFFFFC7B
0000031E
00000649
000004B3
FFFFFF84
FFFFFB2B
000006B5
FFFFFEBA
0000001C
000004A2
000008EE
FFFFFF7D
00000703
00000038
FFFFF542
FFFFFC00
FFFFFE02
FFFFFEDE
00000962
FFFFFAA4
0000066A
FFFFF8E8
0000000D
000007B1
FFFFF84B
FFFFF9D0
000006A1
FFFFFF8B
000004E7
00000771
00000504
0000068A
000002EA
00000AD8
00000896
00000473
FFFFFEFD
000001AB
FFFFFBC2
FFFFFBBB
0000053C
00000382
FFFFFB8C
FFFFF883
00000B5F
00000484
00000648
FFFFFC96
00000315
FFFFF9B1
FFFFFAAD
FFFFFAEA
FFFFF81E
0000034C
00000179
00000235
000006C3
0000069A
000007C4
FFFFF9D0
FFFFFAC5
000001BD
00000B0B
0000036F
0000050E
00000804
00000719
FFFFFF3F
0000093C
0000050B
FFFFF78D
FFFFFB32
00000059
0000083A
FFFFF9AF
FFFFFC2A
000007C8
FFFFFAC4
FFFFFA48
FFFFFFDF
000004FD
FFFFF851
FFFFF80F
FFFFF9E3
FFFFFF5A
FFFFFF00
0000054D
00000448
FFFFF9AB
00000815
FFFFFF21
FFFFFC75
FFFFFE4B
FFFFFC5B
FFFFFCE4
00000A7A
0000081F
00000777
00000548
FFFFFB78
FFFFF8E0
FFFFF986
0000094B
00000015
00000ACB
00000383
FFFFFFF2
0000023D
FFFFFEB9
0000047B
000005CF
0000056E
00000100
000006C1
FFFFFC34
FFFFFAF2
FFFFF96F
00000718
000007D0
FFFFFF7C
00000B26
FFFFFDA0
00000294
FFFFFCD4
000000E3
00000722
000003E5
000004B3
00000545
000005B2
FFFFFF53
00000855
FFFFFBE5
FFFFFE31
000005EA
00000506
FFFFF8D6
00000774
FFFFF8A2
00000980
FFFFFD7E
FFFFF9A2
FFFFF9C2
00000655
FFFFFD21
FFFFFBA5
FFFFFB0D
FFFFFBA9
00000183
FFFFF90B
00000907
00000447
0000077B
000004DF
0000034A
0000020F
00000732
0000007F
000004D8
FFFFFCC7
FFFFF9F5
FFFFF9E3
FFFFF593
00000164
FFFFF876
000000EF
FFFFFDD8
00000AFA
00000657
00000AC3
FFFFFFF3
FFFFFBAD
00000555
00000905
00000176
FFFFFC32
000009D0
FFFFFA66
FFFFFC36
0000035A
FFFFFAFA
FFFFFF5F
FFFFF62E
0000027E
000006F4
FFFFF8D0
FFFFFCD1
FFFFFB40
00000275
FFFFF653
000001F2
FFFFF683
FFFFFB69
FFFFFE71
FFFFF9A9
FFFFFDE1
FFFFFED7
000005DA
00000094
0000011B
000005FC
00000949
00000083
FFFFFBDE
000008DF
FFFFFAA4
0000089D
0000018D
00000701
FFFFFF2A
00000648
0000046F
0000018F
0000008E
FFFFFE8B
FFFFF663
00000036
FFFFF7FB
FFFFF7B2
FFFFFAC3
000002EF
0000021C
00000930
000002F2
00000066
00000295
0000077B
000005A0
0000068F
0000099D
00000371
0000024E
FFFFFF9B
00000359
0000093B
FFFFFFD4
000009CC
000005C8
00000682
FFFFFBAF
000006E6
FFFFFCDA
00000838
0000043E
FFFFFE7E
000002B6
FFFFFDC9
00000A50
000004D1
00000276
00000527
00000A1D
000009EA
FFFFFB6A
00000599
FFFFFE8E
FFFFF97E
00000455
FFFFFBA9
FFFFFB21
FFFFFA02
FFFFF973
0000065D
00000811
000007E8
FFFFFA49
000006F0
00000524
00000A09
0000055E
FFFFFCB2
00000165
00000ABD
00000185
000009BF
00000649
FFFFFE9B
FFFFFC5C
00000A68
000001D3
FFFFF956
00000696
0000037A
00000AC0
0000044F
000008CA
00000182
00000843
FFFFFE65
FFFFFB48
FFFFFA58
FFFFFE51
000008F5
FFFFFA10
00000B17
0000056A
FFFFF93D
0000062D
FFFFF8D1
FFFFF9C0
00000A28
FFFFFBEE
FFFFFB2F
0000014E
0000017F
FFFFFC67
000008C0
FFFFF91D
FFFFFCB4
000004DA
0000068F
000008A2
FFFFFAEF
000004DB
00000572
FFFFFB77
000008B8
00000371
FFFFFC24
000007B3
00000B0F
FFFFFAA3
000003FD
00000337
000005A7
00000745
00000993
FFFFFDBB
FFFFFEF6
00000AE4
FFFFFA11
000000BC
000005A0
FFFFFD15
000007E2
00000AD3
000005B1
FFFFF9FA
FFFFFA33
FFFFFA4C
FFFFFCA9
00000065
00000A40
FFFFFE0E
000003FB
00000687
FFFFFCC9
000005B3
0000000A
FFFFFC13
000005E5
00000749
0000087F
FFFFFC95
FFFFF9C0
FFFFFE75
00000518
FFFFFEE7
FFFFFCD6
00000477
FFFFFEDD
FFFFF988
0000065C
00000357
00000919
FFFFFC84
FFFFF90B
00000AD9
FFFFFD3E
000002A8
FFFFFF94
00000000
00000000
00000000
00000000
00000000
00000000
00000000
00000000
00000000
00000000
00000000
00000000
00000000
00000000
00000000
00000000
00000000
00000000
00000000
00000000
