00000000
00000000
00000000
00000000
00000000
00000000
00000000
00000000
00000000
00000000
00000000
00000000
00000000
00000000
00000000
00000000
00000000
00000000
00000000
00000000
FFFFEAC9
FFFFF877
FFFFEE5C
FFFFF627
FFFFF262
FFFFF62B
FFFFF7C4
FFFFFBD9
FFFFFAA7
FFFFEDF9
FFFFF62D
FFFFEDD5
FFFFF51A
FFFFF56F
FFFFFB90
FFFFEE76
FFFFEF46
FFFFF57A
FFFFF12C
FFFFEADC
FFFFF74F
FFFFF170
FFFFF37B
FFFFEAAF
FFFFF311
FFFFF21B
FFFFFA41
FFFFF274
FFFFFB02
FFFFF847
FFFFEF20
FFFFFB9B
FFFFF322
FFFFFB51
FFFFF8AA
FFFFF6E6
FFFFF03B
FFFFEC02
FFFFF0E0
FFFFED53
FFFFEE3E
FFFFED5F
FFFFF7CA
FFFFF266
FFFFFE07
FFFFEF4E
FFFFF16B
FFFFF353
FFFFEA33
FFFFFB5F
FFFFF168
FFFFF3D5
FFFFF919
FFFFF3F8
FFFFEE7D
FFFFEA9A
FFFFEC37
FFFFFA43
FFFFFAC9
FFFFEE6C
FFFFFC83
FFFFF746
FFFFEC0B
FFFFF0DC
FFFFEE5A
FFFFF1F2
FFFFF067
FFFFFA89
FFFFFFBA
FFFFFF8A
FFFFFF54
0000059B
000004F9
000004A2
FFFFE24C
FFFFED44
FFFFE82E
FFFFEED2
FFFFFB22
FFFFF062
FFFFF771
FFFFFE93
FFFFF2A0
FFFFFC56
FFFFEC5B
FFFFEEFE
FFFFECF6
FFFFF63D
FFFFF233
FFFFF36F
FFFFFD08
FFFFEFD6
FFFFED45
00000577
00000FC7
000011A2
000028F5
00003DB4
000023B4
0000260D
00001D95
00000097
FFFFEDC0
FFFFE84A
FFFFE826
FFFFE2AB
FFFFE64B
FFFFEF82
FFFFF072
FFFFEF09
FFFFEA7A
FFFFF3A3
FFFFEE41
FFFFFAA5
FFFFF1A6
FFFFEAE3
FFFFEF1C
00000395
0000059F
0000153B
00002A07
00003DD9
00003FDF
00004DA8
000048D0
00005679
00003F07
00003100
00001D20
00000932
00000F1E
FFFFED33
FFFFFC4E
FFFFE12B
FFFFCAF0
FFFFBAEE
FFFFD508
FFFFF45A
FFFFF13B
FFFFF03A
FFFFEBDF
FFFFFCA0
FFFFF1BD
FFFFF5C2
FFFFF755
00001615
00001B94
00001AD5
00002E03
00002CAE
000027D3
000031B3
00003929
00004D2A
000040E3
00003EAF
000017B8
FFFFF8AF
000006EC
FFFFFD3F
FFFFF66F
FFFFEF71
FFFFCBF4
FFFFB99C
FFFFDEB4
FFFFFA16
FFFFFB7B
FFFFF073
FFFFECAC
FFFFED3E
FFFFF275
FFFFFC15
0000085D
000018E3
00001AC2
00000D09
00001376
00001F7E
000026AA
000027CC
00003DB4
00003661
00003F85
00004258
000046EA
00001CB7
00001A4E
FFFFEE90
FFFFE60F
FFFFE931
FFFFC2EA
FFFFAE39
FFFFCD0D
FFFFEB7A
FFFFF099
FFFFF243
FFFFF7F7
FFFFFCC8
FFFFFC29
000002F9
00002100
00001F99
00001B44
000005C1
FFFFFB69
00000221
00001877
000010CC
00001DFD
00004328
000034F4
000056ED
0000310A
000000FC
000004EA
FFFFF53F
000009F8
FFFFF738
FFFFF4F8
FFFFBAE6
FFFFC443
FFFFEE39
FFFFFEC0
FFFFF45D
FFFFFBE7
FFFFFC7D
FFFFF773
00000367
00002D74
00002843
00002EE9
0000169E
00000582
FFFFFCB1
000020FF
0000084D
00003753
00004A45
0000573C
00004931
00001018
000026E9
00002749
00002DA1
00000967
00001FB6
0000225D
FFFFB199
FFFFC3F0
FFFFE8D2
FFFFFC04
FFFFF04F
FFFFEBFF
FFFFED4F
FFFFFB2C
0000013A
0000227B
00002ADE
000021EA
00001D81
000016C3
000023EE
00000B20
FFFFFBCB
0000023B
00000FDA
00003551
00003105
00000E70
00000EAD
0000096E
000010F2
00000875
00002608
00002671
FFFFD55A
FFFFCC84
FFFFEC0A
000004A3
FFFFF599
FFFFFC41
FFFFFCD9
FFFFEE71
FFFFFBCD
00000AD5
000013E1
00001B1C
FFFFFEEA
FFFFE93F
FFFFBCB0
FFFFC80B
FFFFA80A
FFFF86BE
FFFF9A8E
00000BAA
000000B7
00000822
00000D55
00001769
00001191
000011A3
0000343E
00002FBA
FFFFF8BF
FFFFE52C
FFFFF9E7
FFFFF42F
FFFFF0D5
FFFFFA04
FFFFF01C
FFFFEF2E
FFFFF3DB
FFFFE6C0
FFFFDA6A
FFFFD33B
FFFFCAE1
FFFFAA6C
FFFF95D0
FFFF867F
FFFFB2BC
FFFF9489
FFFFA054
00001A05
0000112A
FFFFF391
FFFFF74C
00002566
00002713
00003C11
00002800
00002945
00000863
000008C9
00000BA0
FFFFF88E
FFFFF033
FFFFF594
FFFFFAE0
FFFFE9E9
FFFFE803
FFFFD3F0
FFFFA5B5
FFFF7E49
FFFF8FE6
FFFFA03E
FFFFD7CB
FFFFD1C4
FFFFBE6D
FFFFC120
FFFFFEB5
000072A1
000023CD
000003C6
00000B3C
00000C83
00002EBC
00001D72
00001888
FFFFEE20
FFFFDB00
FFFFF822
00000C8C
00000625
FFFFF2A5
FFFFEB1C
FFFFFAD3
FFFFF49A
FFFFEC01
FFFFC5E9
FFFF87CA
FFFF81AA
FFFFA669
FFFFD50E
FFFFE5FB
FFFFB06F
FFFFAF03
FFFFE3F2
00005F01
00008014
00002FBE
00003FD9
000012A0
00000B89
00000858
00000C1D
FFFFDA7F
FFFFB8E3
FFFFC464
FFFFEB15
00001425
000002C1
FFFFFAC6
FFFFF6F6
FFFFF68F
FFFFF6B3
FFFFF235
FFFFD93C
FFFF9C0E
FFFFA956
FFFFD9D9
FFFFDD34
FFFFDFC7
FFFFB607
FFFFD348
00000C5A
00005ECC
00008FE2
00003BB0
000006A3
00000691
00000AAC
FFFFE137
FFFFD679
FFFFD953
FFFFB1EE
FFFFB0AD
FFFFEA16
00000EC4
0000071C
FFFFF5C9
FFFFF3D0
FFFFF7CE
FFFFF030
FFFFFFFA
FFFFF969
FFFFE9AE
FFFFF682
FFFFEFF9
FFFFED2A
FFFFDC11
FFFFCE70
FFFFF31F
00002657
00007EF2
00008143
000019C3
FFFFFA12
FFFFE80B
FFFFDA26
FFFFD00A
FFFFB5EF
FFFFC73F
FFFFBE01
FFFFCD99
00000876
0000168E
000008C9
FFFFFD47
FFFFEC22
FFFFED38
FFFFF62B
00001852
00001824
00000F60
00000A10
FFFFF5C6
FFFFDEFB
FFFFFD18
00001D98
000020B6
0000512E
00006778
00003CB1
FFFFF11B
00000C4A
FFFFEC54
FFFFEC03
FFFFD5BE
FFFFBB35
FFFFDD87
FFFFD2C4
FFFFFA30
00001C70
00002F5A
0000154B
FFFFEFC8
FFFFF125
FFFFEB2A
FFFFF9B6
000014D0
000037F2
00001277
000007E9
FFFFEF7F
FFFFFED8
000019DE
00001B48
00003B6E
000063AE
00005810
00001A08
FFFFFA1D
FFFFEF5D
FFFFDEAF
FFFFCE93
FFFFF421
FFFFC98E
FFFFE9FB
FFFFFEEA
0000058C
00002A26
00003809
0000091E
FFFFEC66
FFFFF986
FFFFFA1A
FFFFF64C
00001D19
000031BE
000022E0
FFFFF742
FFFFF40E
FFFFE98C
00000047
0000224F
000027DB
0000362B
00002A34
00000F3E
FFFFFDCE
00000660
00000164
000001FB
FFFFFEC5
FFFFF22F
FFFFF911
00001E08
00002F2F
00004624
00001E72
FFFFFC06
FFFFF13C
FFFFF3AA
FFFFF50C
FFFFF560
000020B9
000033BF
00001480
FFFFF5B4
000016D5
000009B7
00003589
00002109
FFFFFC67
FFFFF695
00000F02
FFFFF1FC
0000005B
000006AC
00000D84
000000B7
FFFFEFCC
00000BA3
000019A7
0000252F
0000334D
00001E43
00001ACC
FFFFF6B4
FFFFF09A
FFFFECFE
FFFFEF96
FFFFF668
00001B6A
0000449C
00001530
00003194
00004F86
000034B9
00002258
00001932
FFFFFBFC
FFFFD63B
FFFFC8E2
FFFFDED7
FFFFECD2
FFFFF6DA
FFFFE965
0000037E
00002214
00001E3E
00002CD4
00001935
00002D59
00001999
000003C2
FFFFF98F
FFFFF3BE
FFFFFC12
FFFFF0DE
FFFFFAF4
00001B35
00002D86
00002C15
00003849
00002D58
0000294A
000012BE
000006AA
FFFFE643
FFFFDA45
FFFFEB6F
FFFFEBFF
FFFFD34A
FFFFF44C
FFFFFDD4
000016E5
00002BC6
00001946
00001256
000015A5
0000157B
000013BD
FFFFFE78
FFFFF7B8
FFFFF6BF
FFFFEE30
FFFFEC7B
FFFFFAC5
000011F4
00002698
0000378A
000047E8
00003F44
00001E65
00001A9E
000021EA
00000B76
00000A2C
FFFFF50C
000023EC
0000067D
FFFFFA79
000019CE
000012A8
000017C4
00001314
FFFFFA9E
000008F7
000007CB
FFFFFD0E
FFFFED98
FFFFF978
FFFFF93D
FFFFEB2F
FFFFFB6B
FFFFF69D
FFFFFF9D
0000137B
00001E72
0000282F
000033B4
00001487
000016B1
00000451
00001AA7
00003664
000032A6
000013B0
00001533
00000999
00000722
00001347
0000090B
FFFFF0B5
FFFFEF64
FFFFF8F0
FFFFFF59
FFFFFC81
FFFFF11D
FFFFF03B
FFFFF1BC
FFFFFC74
FFFFFAF2
FFFFF4CA
FFFFFC27
00000A44
00000D3F
00001091
00000B30
000003FE
FFFFFD39
FFFFFD29
0000068C
00001C7F
0000173B
00001271
00001D66
00001F35
00001678
000011D9
00000A1B
00000722
FFFFF55A
FFFFF157
FFFFEF6A
000000C6
FFFFF403
FFFFFB7A
FFFFF5D6
FFFFFC0B
FFFFF163
FFFFECB9
FFFFF5ED
FFFFEE3B
FFFFEDE4
FFFFFAD1
FFFFFE4B
00000887
FFFFF6BA
FFFFE8C2
FFFFFB51
00002419
000009FC
00001609
000019D0
000020A1
000046B9
00004184
00002D22
00001D5A
FFFFFE7E
FFFFE653
FFFFED0D
FFFFEE00
FFFFF3F3
FFFFFB51
FFFFFC4D
FFFFF7AC
FFFFF65F
FFFFF0D8
FFFFEA5F
FFFFEF55
FFFFEEB3
FFFFFC9D
00000089
FFFFF9C4
00000188
FFFFFD6B
FFFFFD53
FFFFFB31
FFFFFBFC
0000105F
00001545
000018F3
00002091
000015EC
000015EE
000003A4
FFFFFB74
FFFFEE58
FFFFEDC0
FFFFF2C7
FFFFEFCE
FFFFEF21
FFFFF585
FFFFFA70
FFFFF588
FFFFF4D7
FFFFF972
FFFFF2C5
FFFFF75C
FFFFF695
FFFFEB3E
FFFFECF7
FFFFF366
FFFFFDA9
FFFFF94D
FFFFF880
FFFFFB0B
FFFFF11B
FFFFF878
FFFFF40A
FFFFF4E5
FFFFF72C
FFFFEFF4
FFFFECFB
FFFFEF31
FFFFEBFF
FFFFFBB0
FFFFF814
FFFFED03
FFFFEA68
FFFFEF36
00000000
00000000
00000000
00000000
00000000
00000000
00000000
00000000
00000000
00000000
00000000
00000000
00000000
00000000
00000000
00000000
00000000
00000000
00000000
00000000
