00000000
00000000
00000000
00000000
00000000
00000000
00000000
00000000
00000000
00000000
00000000
00000000
00000000
00000000
00000000
00000000
00000000
00000000
00000000
00000000
00000335
FFFFFB2B
00000185
000005F3
00000A7B
000009D3
000007EB
FFFFFF5A
00000160
00000546
00000270
FFFFFB58
FFFFFE90
FFFFFA3A
000005B4
00000A43
000000E2
FFFFFF8C
00000220
FFFFFA83
0000008D
FFFFFD72
000006DE
FFFFFA75
FFFFFAC7
00000631
00000AEB
0000035E
00000003
00000803
000000D2
FFFFFB9A
000004CF
000008C5
0000052F
0000000F
FFFFFB0C
00000759
00000AD6
0000002F
000000AE
00000636
00000511
00000A81
0000067B
FFFFFE55
FFFFFC97
FFFFFD77
000005B4
FFFFFC61
FFFFFBD4
0000064F
FFFFFD5C
000009D4
000007FB
FFFFFFC1
FFFFFB4A
0000096A
FFFFF97E
000003B2
00000689
00000837
000003E0
FFFFFC94
0000072B
0000064A
00000A98
000008B7
FFFFFAD0
FFFFFAAF
000004B4
00000222
00000A45
000001E9
00000B3F
00000363
FFFFFB63
00000776
FFFFF9DC
000001C0
000009B7
FFFFF9C8
FFFFFFEC
00000B60
000002D1
FFFFFBF1
00000788
00000521
0000009D
00000B0A
000008CD
000002B6
00000081
00000325
FFFFFDDF
FFFFFCAA
FFFFFFC3
0000009C
00000368
FFFFFF4B
000001D4
00000A2A
FFFFFFD6
00000A47
FFFFFD5B
00000219
0000089A
0000012A
FFFFFD58
00000798
0000044E
0000010E
00000598
0000060B
00000A59
000005CC
FFFFFB2B
00000237
00000665
FFFFFFFE
0000004D
000006B4
0000090D
FFFFFBB9
000000FC
FFFFFE0D
FFFFFC3B
000002DB
00000397
000004B7
FFFFFECF
FFFFFB19
FFFFFCBE
0000030E
000004E5
FFFFFA29
FFFFFAEC
FFFFFA46
FFFFFC8E
00000695
FFFFFD9D
FFFFFD2C
000002B5
00000AF1
00000691
FFFFFBA8
00000948
FFFFFDE3
0000061D
000005CF
000007E2
000005FF
FFFFFAFB
00000689
0000001B
FFFFFC72
000002C0
FFFFFB30
FFFFFA79
000005E4
000004BA
FFFFFC19
000005AE
00000343
00000B56
FFFFF981
000003FF
FFFFF9A3
FFFFFD15
000006DE
00000905
FFFFFF46
00000990
00000834
00000AFB
0000024A
FFFFF98E
FFFFFE06
000004AB
000003B1
0000033C
000003AD
00000801
0000001B
FFFFFE5F
FFFFFFF8
00000575
FFFFFFD5
00000553
FFFFF8F6
FFFFFE51
00000B2F
000000B1
FFFFFCBA
0000079F
00000982
FFFFFF0C
00000336
000001C5
FFFFFC1B
000000AC
FFFFFDA5
FFFFF94D
000001E4
00000832
0000031F
000004FB
FFFFFA25
FFFFFB69
0000057C
0000047B
FFFFF5FD
FFFFFED2
00000584
0000019D
00000201
FFFFF930
000005BA
00000332
FFFFFB1F
FFFFF96C
FFFFFDE1
00000A29
FFFFFF69
FFFFFF7B
FFFFF92F
000008BE
FFFFFD37
000005F9
00000592
FFFFFE74
0000009E
FFFFFC2F
FFFFFFC1
00000761
00000182
FFFFFFAE
FFFFFF0E
000000D7
FFFFFA05
FFFFFE1F
FFFFF9BB
0000035B
000002E7
FFFFFE60
00000306
00000972
000001FF
FFFFFD69
FFFFFE84
00000130
FFFFFD45
00000496
FFFFFF6D
00000123
0000013D
000008D4
FFFFF9F1
000003A5
000005F5
0000071C
FFFFFF63
FFFFF7F9
FFFFFA8C
FFFFF8ED
FFFFFF0A
FFFFFFC7
00000AB8
FFFFFE2F
000000BA
0000029F
0000089F
000002C6
000002C1
FFFFFF2C
0000066D
00000166
0000035E
FFFFFA48
00000214
FFFFFA85
0000025D
FFFFFB8B
000008BC
00000ADA
000009D1
00000763
FFFFFE94
000002E5
FFFFF818
FFFFFE82
FFFFF8DD
FFFFF9AF
FFFFFC3D
00000456
00000AF5
FFFFFA2F
FFFFFAAA
000002FC
FFFFFF3D
00000A53
FFFFFA81
FFFFFA2A
0000098F
FFFFFE03
00000AF6
00000423
FFFFFB50
FFFFF9C2
FFFFFBA5
00000590
000002EF
00000378
000004F2
0000067F
FFFFFF3C
FFFFFA3B
00000451
0000071D
FFFFFF81
FFFFFD40
FFFFFDE1
00000A43
0000006D
FFFFFF30
0000056C
FFFFFFAE
000009E7
FFFFFAAB
FFFFFD98
FFFFFD16
FFFFFBBA
0000029E
000007A3
FFFFFE5C
FFFFFF42
FFFFFD31
00000237
0000093E
FFFFFFD7
00000831
FFFFF953
FFFFFC02
FFFFFEB5
FFFFF8E2
000003C2
FFFFF90E
FFFFFF9D
000004C8
00000AA3
0000073B
FFFFFD01
FFFFFCF3
FFFFFA1B
0000059D
000003EF
000005C2
FFFFFF49
FFFFFA12
000006E6
FFFFFFC1
00000B11
FFFFF94E
00000B3D
00000611
FFFFF9A5
FFFFFFA3
FFFFFEC6
000009F6
FFFFFA6D
000000F3
00000657
FFFFF516
00000175
00000167
000003D5
FFFFFB34
00000401
000000B3
0000013C
FFFFF924
FFFFFC0C
FFFFFBC0
FFFFFCD0
FFFFF9FB
FFFFFCDF
FFFFFE37
00000207
0000026A
00000248
FFFFFC89
000007E0
FFFFFF72
000007DA
FFFFFD6C
FFFFFD78
0000094D
0000036A
FFFFFC07
000006E9
00000649
FFFFF8D7
00000005
000005C1
000004B1
FFFFFE3B
00000155
FFFFF830
00000501
000006A0
FFFFFE40
000004C4
FFFFFF41
FFFFFB0E
FFFFFE98
0000020B
00000644
FFFFFB9A
FFFFFAAE
00000969
FFFFFAA8
0000055C
FFFFFC45
00000B59
FFFFFA10
FFFFFF1A
00000AFD
FFFFFF6C
FFFFFCD7
FFFFF731
FFFFFD86
FFFFFF17
0000017E
FFFFFC4A
000000E5
0000029E
000000A1
00000064
0000043C
00000152
000005FE
FFFFFA18
00000AA7
00000802
0000019F
FFFFFA9A
0000044E
FFFFFD21
000002E5
FFFFFFE0
FFFFFD04
000000D1
FFFFFA86
FFFFFE87
FFFFFF44
00000634
00000235
FFFFF781
000006FC
0000058A
FFFFF9AE
00000284
FFFFFC7F
FFFFF7C7
FFFFFABB
FFFFF826
000006BA
000000E4
0000059E
0000072D
00000526
000007D6
00000162
0000033A
000002ED
FFFFFFBB
FFFFFBC6
00000664
00000279
00000507
00000B3F
FFFFFEF8
00000605
FFFFFA12
FFFFF94D
000005D0
00000330
00000631
FFFFFBB5
FFFFFFE7
FFFFF9A6
000008E3
0000061D
00000606
FFFFF86F
FFFFFC14
FFFFFD3B
FFFFFEEC
00000283
FFFFFCD6
00000085
FFFFFED4
000000EF
000004AB
0000065B
00000767
00000826
000000D6
00000088
00000A70
00000181
00000500
00000394
000003BF
000006E0
FFFFFC70
FFFFFC84
0000003B
00000520
000000C9
000002C7
FFFFFAC5
FFFFFEA0
FFFFF834
FFFFFDF9
FFFFFAAC
00000978
00000192
FFFFFF1F
00000AD1
0000097F
FFFFFDAC
FFFFFC5D
00000679
00000A4B
FFFFFD44
000002C1
000003DB
0000043B
FFFFFAD3
00000239
0000083F
FFFFFB27
FFFFFA26
0000008D
0000092F
FFFFFA7F
FFFFF6A5
00000403
00000165
FFFFFDBC
00000502
000002A9
00000293
00000974
00000211
000007B1
000003D9
FFFFFCA1
FFFFFE63
00000B3D
FFFFFB05
00000B38
00000353
000004F4
FFFFF94D
FFFFF9F8
0000032B
00000720
FFFFF8EC
000003D4
0000032A
FFFFF9AA
0000034A
0000068C
FFFFFFFD
FFFFFFE3
00000645
FFFFF9CB
00000617
00000202
00000A1E
00000A9E
FFFFFA59
FFFFFE16
FFFFFC57
FFFFF9A9
00000195
FFFFFC10
00000B11
00000242
FFFFFB88
FFFFFA80
00000496
000000F1
0000003A
FFFFF84B
FFFFF8A2
0000072D
000000CF
0000042B
FFFFF6D4
FFFFF752
FFFFF92C
FFFFF9B8
FFFFF8AC
FFFFF782
FFFFFBD7
000000C7
0000035B
FFFFFF75
00000534
FFFFFD1D
00000063
00000633
00000126
FFFFFDE6
00000261
00000A5E
FFFFFB8F
0000017E
FFFFFBFD
00000655
00000066
FFFFFFCF
0000052B
FFFFFCAC
00000128
00000B08
000009CF
FFFFFCF5
FFFFFCDE
FFFFFC45
0000036E
0000075A
FFFFFE21
FFFFFC87
00000187
00000B0A
000000FC
00000515
00000A5C
FFFFFD71
000008AC
FFFFFB40
00000AC4
00000B12
0000038D
0000057A
0000097C
FFFFFDC8
FFFFFF2E
FFFFFBC7
FFFFFF82
000009B6
000009E0
000007CC
FFFFFC62
00000622
0000093E
00000AE7
00000905
00000B49
000008AC
FFFFFD7C
FFFFFC99
000005D4
00000992
0000028D
000004D2
FFFFFA4B
FFFFFA19
FFFFF9E6
000005BA
000009B6
0000026D
FFFFFDD5
FFFFFAEB
000003DC
00000416
FFFFFA10
0000060B
FFFFFC63
00000B5A
000007EF
FFFFF961
FFFFF9FE
FFFFF892
000008FE
00000A3C
00000540
000005C4
00000171
FFFFFDFD
FFFFFECC
000001C6
000002E6
0000069B
0000034B
000004FD
00000022
FFFFFD4C
00000A6D
FFFFFD10
000007F7
00000375
FFFFFF13
FFFFFDC8
00000282
FFFFFC06
FFFFFDB2
FFFFFE57
00000A12
0000061C
000004FC
00000588
000008E5
00000779
FFFFFFDC
00000165
FFFFF963
FFFFFEF9
FFFFFECE
000009CF
0000029D
FFFFFD3C
FFFFFAB0
FFFFFF0E
FFFFFECA
00000000
00000630
FFFFFB34
FFFFF9E0
00000470
000005F6
00000455
00000160
00000484
FFFFFBEF
00000A26
FFFFF9F4
FFFFFC52
FFFFFD60
0000056B
0000019C
FFFFFDEA
FFFFFBBB
000005C7
0000062F
FFFFFD8B
FFFFFD02
000003DC
00000326
FFFFFCCE
00000ABA
FFFFFFA4
FFFFFC0A
FFFFF941
0000072C
000001D3
FFFFFE10
FFFFFE26
FFFFF942
FFFFFB6F
0000064D
FFFFFAFF
FFFFFEE4
000009CB
00000352
00000504
0000042B
000006F4
FFFFFBAB
FFFFFFF3
0000063C
00000AF3
FFFFFAB1
FFFFFA2B
FFFFFD4E
FFFFFB71
00000447
0000054B
000005E0
000007CA
00000000
00000000
00000000
00000000
00000000
00000000
00000000
00000000
00000000
00000000
00000000
00000000
00000000
00000000
00000000
00000000
00000000
00000000
00000000
00000000
