00000000
00000000
00000000
00000000
00000000
00000000
00000000
00000000
00000000
00000000
00000000
00000000
00000000
00000000
00000000
00000000
00000000
00000000
00000000
00000000
FFFFFC88
00000914
00000489
000008FC
000000BF
000002CE
0000076F
FFFFFEFA
FFFFF888
00000336
FFFFF973
00000280
FFFFFC1C
FFFFFFCC
000006CC
0000036D
FFFFFE17
000000CE
00000309
00000510
FFFFFBED
0000005E
FFFFF900
00000625
FFFFFD0A
00000853
00000758
00000912
FFFFFD1E
FFFFF964
FFFFFF07
00000568
00000580
FFFFFE5C
000005DA
FFFFF8CB
FFFFF8EE
FFFFFF3E
0000002C
FFFFFDC0
00000330
000009E3
FFFFFC85
FFFFFB20
000002D6
00000A47
FFFFFBF9
FFFFFA29
FFFFFD9F
FFFFFD86
FFFFF8C8
FFFFFA62
00000627
00000A57
0000000F
FFFFFD08
000003BC
FFFFFF61
000003BE
000004A9
000003B4
0000036B
0000060E
00000023
0000001C
FFFFFC0F
000000C7
FFFFFAED
FFFFF9BB
00000791
FFFFFEAA
FFFFFD0A
0000003A
FFFFF8BD
FFFFF828
FFFFF9AC
FFFFFF46
FFFFFED3
FFFFFC1A
000000BA
FFFFFC96
0000045F
FFFFFD03
FFFFFDBD
0000046D
FFFFFF38
00000782
FFFFFC82
00000760
FFFFFC0F
FFFFF878
000002BB
FFFFFE28
FFFFFE81
FFFFFBEA
FFFFFEC9
000002F3
0000052A
FFFFF831
FFFFF93F
00000132
00000536
0000025E
00000262
00000669
FFFFFD1C
000006A5
FFFFFE4A
FFFFFC8B
00000952
FFFFF8F4
000005F0
00000009
FFFFFED0
000001D7
00000901
FFFFF991
00000350
00000A0E
00000685
FFFFF9C5
0000053F
00000620
000009BD
FFFFFD85
00000984
000008BE
000008E2
FFFFFF29
FFFFFE5B
FFFFFF99
000006EC
00000894
000005CE
FFFFFD64
FFFFFE19
00000702
FFFFFF06
00000632
000009AD
00000777
0000087B
000004D2
0000098C
00000689
0000099F
0000055D
FFFFFA24
00000713
FFFFFA88
FFFFFA1E
0000004F
FFFFFC68
FFFFFDC6
FFFFFC70
FFFFF952
00000828
FFFFFC64
FFFFF761
FFFFFC0F
FFFFFCA5
0000071A
FFFFF922
00000111
FFFFF977
000005C6
FFFFF828
FFFFFFBE
FFFFFFB6
000003B2
FFFFFC41
FFFFFCDB
FFFFFF12
FFFFF8FC
000001AE
FFFFFF12
FFFFFFDB
000003D4
00000620
FFFFFE91
000001B4
0000077F
FFFFFA12
FFFFF839
00000396
FFFFFC9D
FFFFFD71
000006BB
000002C7
FFFFFC8E
0000042B
FFFFF91B
FFFFF973
FFFFFDE0
0000022B
00000A19
FFFFF872
FFFFFE69
0000018C
0000050E
000004E6
FFFFF9CA
FFFFFB60
FFFFFA52
FFFFFDCE
00000563
0000011C
0000028C
FFFFFE8F
0000056D
FFFFFB2E
FFFFFC85
0000014D
FFFFF647
00000446
FFFFF98E
00000392
000003EC
FFFFF929
FFFFFB96
00000974
00000501
000004A9
00000030
0000076D
FFFFFDDB
00000915
00000071
FFFFFFDC
FFFFF84C
0000085D
00000130
FFFFFF89
000002F9
00000375
FFFFFBD4
00000107
0000056B
FFFFFB60
FFFFF762
FFFFF72F
000001AC
000002D7
00000020
0000061A
0000047A
00000936
000001B8
FFFFFCF4
0000031D
FFFFFF32
000006F1
000000C2
0000049E
000003AC
000000AD
FFFFFC24
FFFFFF26
FFFFFAE7
FFFFFBE0
FFFFFCEA
FFFFF676
000002A6
FFFFFD5A
FFFFF882
FFFFFC9D
00000037
FFFFFD0B
FFFFF92B
000007B9
FFFFFA72
FFFFFD89
FFFFFBF7
000004CA
0000059F
FFFFF9FB
FFFFFA37
0000002A
FFFFFAB6
FFFFFF4C
00000151
000006AF
FFFFFF8D
FFFFFB0D
FFFFFABC
FFFFFCAA
FFFFFC9A
FFFFFAE8
FFFFF985
FFFFFB9B
FFFFFDB1
000006DC
FFFFF6AD
FFFFFFBE
FFFFF80A
FFFFF8E1
00000522
FFFFFAC9
FFFFF98C
00000550
FFFFFFEE
00000A60
FFFFF954
FFFFF87D
FFFFFC71
FFFFFCA1
000000B2
000000BB
0000041D
0000031C
000008DF
00000346
FFFFFA9E
FFFFFB6B
0000087B
000008E3
FFFFF935
FFFFFCCA
0000010F
FFFFF6FF
00000355
0000024D
00000742
FFFFFBCC
000000CA
FFFFFEAF
FFFFFFDE
FFFFFE7C
00000380
000003FD
FFFFFB30
000000E8
000004B3
000004C1
000006D7
FFFFF83B
000005E0
000000D3
0000027E
0000086C
FFFFF934
00000A5A
00000A4A
000006D5
FFFFF83D
FFFFFA54
FFFFF872
0000035D
FFFFF88F
00000A1E
FFFFFEC8
000008E8
FFFFFD2C
00000789
000004F0
FFFFFEE1
FFFFFD3E
0000006E
00000227
000007C7
000009F2
00000511
000002E8
00000725
FFFFFCCC
FFFFF9AB
FFFFFB54
00000422
FFFFFAD6
00000A45
FFFFFC95
FFFFFB01
FFFFF6E5
00000400
0000024C
0000028A
000006A1
0000010A
FFFFF929
FFFFFF49
00000941
FFFFFCA4
FFFFFDDC
FFFFF937
0000023C
00000327
000004DF
FFFFFE89
00000938
0000007E
FFFFFA49
FFFFF8B5
FFFFFC9C
000003C0
FFFFFC73
FFFFFAE4
000002FC
00000349
000000E6
0000006B
FFFFF792
FFFFF5C6
00000166
0000012F
00000278
00000635
FFFFFC23
000001BD
0000086B
0000010E
00000467
00000535
00000448
FFFFFEAE
0000075C
FFFFFFE1
0000077A
00000868
FFFFFCD0
FFFFFCFB
FFFFFBEB
FFFFFB46
FFFFFCEE
FFFFFB86
000000EB
000004F1
00000517
00000520
FFFFF52A
FFFFF6C3
000006D1
FFFFFDED
00000860
000005CE
00000B0D
000004ED
0000004E
FFFFF8E4
00000540
0000022E
0000023E
FFFFFB02
00000183
00000478
FFFFFBD1
FFFFFC5B
FFFFFAAD
FFFFFE73
FFFFFC44
FFFFFA42
00000781
00000830
0000070F
000004A6
FFFFFB0F
FFFFFB1B
FFFFF6D4
FFFFFE21
00000967
0000052E
FFFFF8A3
FFFFF7FF
000002E1
000003B6
FFFFFE7D
000009D1
000000C6
0000019A
0000064E
00000334
FFFFFEF6
0000016B
00000716
00000288
FFFFFFA7
FFFFFD3D
FFFFFA69
FFFFFE42
00000751
00000736
000007B1
FFFFFFF6
FFFFFF0C
00000099
FFFFFDD3
000004C8
0000096F
000004B0
FFFFF8CB
0000074B
000003CA
FFFFFD28
00000856
000000E0
000008E8
00000234
FFFFFCD4
FFFFFA2B
0000084A
00000309
00000707
000004C7
000008E7
FFFFFE51
00000557
00000148
00000156
FFFFFC92
000001E8
FFFFF934
FFFFFED3
FFFFFC17
00000148
0000034A
FFFFFAE8
FFFFFE43
FFFFFDA2
FFFFF6BB
00000936
FFFFFE51
0000078A
FFFFFADF
FFFFFF6A
00000095
000005B6
00000928
000004B3
FFFFFFAE
0000084B
0000040A
0000095F
000009F7
000005FC
FFFFFCC6
FFFFF87C
FFFFFD33
000007A0
FFFFF89B
00000358
000005FC
FFFFFBDD
FFFFFAD3
00000678
FFFFFEF6
0000037D
0000041C
FFFFFF5A
FFFFFE3B
FFFFFEF7
00000A02
000006DA
000004E9
FFFFFEB8
FFFFFA05
000004FA
000005D8
FFFFFC80
FFFFFE76
FFFFF90A
FFFFF9DA
00000001
0000059D
FFFFFC78
00000984
0000069B
000008D3
0000084B
FFFFF902
000002B3
00000526
FFFFF901
00000977
000006A1
FFFFF8C6
000006FD
FFFFF867
FFFFFB06
FFFFF90F
FFFFF990
0000092B
000001D6
FFFFFC46
000003BC
00000394
000008D5
00000942
00000529
000005E4
FFFFFE8A
FFFFFDFB
0000055E
000001AA
00000457
000002C3
000000AE
0000009E
00000558
0000016E
FFFFF954
FFFFFB45
0000070B
FFFFFA0C
000003F8
FFFFFA76
00000481
FFFFF837
00000674
0000004A
000006DD
FFFFFABC
FFFFFCE2
000007AB
FFFFFE83
FFFFFC99
000001CE
000003D8
00000585
FFFFFF4B
00000815
000000C6
000002B4
000004FE
FFFFF8C1
0000013F
FFFFFA28
0000063B
0000064F
FFFFFCF5
000000A2
FFFFFCB7
FFFFF7CD
FFFFF649
FFFFFF39
00000592
00000139
FFFFFEC5
FFFFFA85
000004ED
00000610
00000078
FFFFFF0A
00000111
FFFFF9D8
00000057
FFFFFD53
00000866
00000361
000006C3
000001F3
0000078C
00000550
000000A9
00000258
FFFFFF7B
000005A1
FFFFFE43
0000057A
00000508
FFFFF86A
FFFFF567
FFFFFD0C
FFFFF927
000000B5
000006FB
FFFFFB13
FFFFF920
FFFFFA74
FFFFF888
000002DB
FFFFFEEF
FFFFFBC3
0000099D
000003CD
FFFFFA9E
0000092C
00000634
000005F9
00000095
0000050E
FFFFFD2B
0000080A
FFFFF792
000003A0
FFFFFCBA
000001D4
00000402
FFFFFF18
FFFFFAC4
0000002D
000005F6
FFFFF901
FFFFF9C2
FFFFFF14
000003D8
FFFFFB38
0000032C
FFFFFFA7
FFFFFB28
00000902
0000050E
FFFFF893
FFFFFF43
000001FD
00000741
00000789
00000704
000000E3
00000958
00000793
00000973
FFFFFA5A
FFFFFB88
00000891
000007AA
FFFFFD61
000002A7
00000256
000003CF
00000338
000009A7
FFFFFD07
000005F4
000003B6
FFFFFA05
00000785
FFFFFA14
FFFFFB22
FFFFFE23
00000159
FFFFF88F
FFFFFBA4
000001C2
FFFFF9F6
FFFFFF43
FFFFFE9C
00000876
000001CB
00000184
000000D4
FFFFFFE3
FFFFF9B2
00000A1F
00000536
00000930
FFFFFE12
000008A2
FFFFFF10
00000751
00000617
00000141
FFFFF9D1
FFFFFB1F
FFFFFCBB
FFFFFD39
FFFFFAA0
FFFFFBF7
FFFFFE48
000000DA
FFFFFE73
FFFFFF6C
FFFFFBCC
000006C4
0000003D
FFFFFBB4
00000205
0000078E
0000064F
00000778
0000032D
000004B5
000009AB
FFFFFE6B
00000599
FFFFF95E
FFFFFF17
0000025E
0000062F
00000828
000009BF
0000006A
00000370
FFFFFF91
00000920
FFFFFE03
00000000
00000000
00000000
00000000
00000000
00000000
00000000
00000000
00000000
00000000
00000000
00000000
00000000
00000000
00000000
00000000
00000000
00000000
00000000
00000000
